{
  "version": "1.0",
  "truncation": null,
  "padding": null,
  "added_tokens": [
    {
      "id": 0,
      "content": "<s>",
      "single_word": false,
      "lstrip": false,
      "rstrip": false,
      "normalized": false,
      "special": true
    },
    {
      "id": 1,
      "content": "<pad>",
      "single_word": false,
      "lstrip": false,
      "rstrip": false,
      "normalized": false,
      "special": true
    },
    {
      "id": 2,
      "content": "</s>",
      "single_word": false,
      "lstrip": false,
      "rstrip": false,
      "normalized": false,
      "special": true
    }
  ],
  "normalizer": {
    "type": "Sequence",
    "normalizers": [
      {
        "type": "NFD"
      },
      {
        "type": "Lowercase"
      },
      {
        "type": "StripAccents"
      }
    ]
  },
  "pre_tokenizer": {
    "type": "ByteLevel",
    "add_prefix_space": false,
    "trim_offsets": true,
    "use_regex": true
  },
  "post_processor": {
    "type": "ByteLevel",
    "add_prefix_space": true,
    "trim_offsets": false,
    "use_regex": true
  },
  "decoder": {
    "type": "ByteLevel",
    "add_prefix_space": true,
    "trim_offsets": true,
    "use_regex": true
  },
  "model": {
    "type": "BPE",
    "dropout": null,
    "unk_token": null,
    "continuing_subword_prefix": null,
    "end_of_word_suffix": null,
    "fuse_unk": false,
    "byte_fallback": false,
    "vocab": {
      "<s>": 0,
      "<pad>": 1,
      "</s>": 2,
      "!": 3,
      "\"": 4,
      "#": 5,
      "$": 6,
      "%": 7,
      "&": 8,
      "'": 9,
      "(": 10,
      ")": 11,
      "*": 12,
      "+": 13,
      ",": 14,
      "-": 15,
      ".": 16,
      "/": 17,
      "0": 18,
      "1": 19,
      "2": 20,
      "3": 21,
      "4": 22,
      "5": 23,
      "6": 24,
      "7": 25,
      "8": 26,
      "9": 27,
      ":": 28,
      ";": 29,
      "?": 30,
      "@": 31,
      "[": 32,
      "]": 33,
      "a": 34,
      "b": 35,
      "c": 36,
      "d": 37,
      "e": 38,
      "f": 39,
      "g": 40,
      "h": 41,
      "i": 42,
      "j": 43,
      "k": 44,
      "l": 45,
      "m": 46,
      "n": 47,
      "o": 48,
      "p": 49,
      "q": 50,
      "r": 51,
      "s": 52,
      "t": 53,
      "u": 54,
      "v": 55,
      "w": 56,
      "x": 57,
      "y": 58,
      "z": 59,
      "¢": 60,
      "¦": 61,
      "ª": 62,
      "½": 63,
      "Â": 64,
      "â": 65,
      "Ġ": 66,
      "Ģ": 67,
      "Ħ": 68,
      "ħ": 69,
      "ĵ": 70,
      "Ķ": 71,
      "ĺ": 72,
      "Ļ": 73,
      "ľ": 74,
      "Ŀ": 75,
      "Ġt": 76,
      "he": 77,
      "Ġa": 78,
      "in": 79,
      "Ġw": 80,
      "re": 81,
      "an": 82,
      "Ġs": 83,
      "Ġthe": 84,
      "Ġi": 85,
      "at": 86,
      "ou": 87,
      "on": 88,
      "er": 89,
      "Ġth": 90,
      "or": 91,
      "ing": 92,
      "Ġc": 93,
      "Ġp": 94,
      "Ġm": 95,
      "ll": 96,
      "Ġd": 97,
      "and": 98,
      "it": 99,
      "as": 100,
      "en": 101,
      "Ġto": 102,
      "ed": 103,
      "Ġf": 104,
      "Ġb": 105,
      "Ġh": 106,
      "is": 107,
      "Ġl": 108,
      "es": 109,
      "you": 110,
      "Ġo": 111,
      "the": 112,
      "ar": 113,
      "Ġan": 114,
      "Ġin": 115,
      "Ġthat": 116,
      "ow": 117,
      "ve": 118,
      "om": 119,
      "Ġwas": 120,
      "le": 121,
      "Ġyou": 122,
      "'s": 123,
      "Ġn": 124,
      "Ġg": 125,
      "us": 126,
      "th": 127,
      "Ġof": 128,
      "Ġit": 129,
      "ea": 130,
      "Ġand": 131,
      "Ġha": 132,
      "ic": 133,
      "al": 134,
      "Ġwe": 135,
      "ion": 136,
      "ay": 137,
      "et": 138,
      "ot": 139,
      "Ġre": 140,
      "Ġe": 141,
      "ig": 142,
      "ut": 143,
      "Ġbe": 144,
      "ld": 145,
      "all": 146,
      "Ġhe": 147,
      "id": 148,
      "so": 149,
      "Ġst": 150,
      "ent": 151,
      "Ġis": 152,
      "ct": 153,
      "se": 154,
      "Ġfor": 155,
      "Ġon": 156,
      "ch": 157,
      "..": 158,
      "ver": 159,
      "op": 160,
      "Ġme": 161,
      "eaf": 162,
      "Ġk": 163,
      "ill": 164,
      "now": 165,
      "'t": 166,
      "Ġwh": 167,
      "me": 168,
      "oo": 169,
      "Ġhave": 170,
      "Ġas": 171,
      "we": 172,
      "st": 173,
      "out": 174,
      "ith": 175,
      "ould": 176,
      "but": 177,
      "Ġdeaf": 178,
      "Ġthis": 179,
      "ee": 180,
      "if": 181,
      "un": 182,
      "ke": 183,
      "ge": 184,
      "Ġthey": 185,
      "that": 186,
      "ign": 187,
      "ant": 188,
      "ir": 189,
      "ome": 190,
      "ht": 191,
      "Ġpo": 192,
      "ce": 193,
      "Ġsign": 194,
      "eop": 195,
      "eople": 196,
      "ally": 197,
      "ation": 198,
      "ad": 199,
      "ly": 200,
      "Ġj": 201,
      "for": 202,
      "Ġmo": 203,
      "Ġare": 204,
      "ro": 205,
      "ers": 206,
      "Ġwith": 207,
      "Ġknow": 208,
      "ren": 209,
      "ind": 210,
      "ther": 211,
      "Ġne": 212,
      "Ġpeople": 213,
      "Ġex": 214,
      "Ġdo": 215,
      "to": 216,
      "Ġab": 217,
      "Ġcan": 218,
      "Ġus": 219,
      "Ġthere": 220,
      "ust": 221,
      "mp": 222,
      "Ġat": 223,
      "la": 224,
      "Ġall": 225,
      "Ġli": 226,
      "Ġmy": 227,
      "wh": 228,
      "very": 229,
      "ate": 230,
      "--": 231,
      "ul": 232,
      "...": 233,
      "up": 234,
      "ry": 235,
      "Ġwor": 236,
      "Ġnot": 237,
      "ink": 238,
      "ist": 239,
      "Ġwill": 240,
      "Ġv": 241,
      "Ġwould": 242,
      "be": 243,
      "Ġsh": 244,
      "our": 245,
      "ear": 246,
      "ck": 247,
      "Ġwere": 248,
      "ud": 249,
      "Ġthink": 250,
      "age": 251,
      "Ġcom": 252,
      "Ġr": 253,
      "art": 254,
      "Ġwant": 255,
      "il": 256,
      "im": 257,
      "they": 258,
      "Ġgo": 259,
      "Ġhad": 260,
      "ter": 261,
      "ure": 262,
      "Ġ\"": 263,
      "Ġen": 264,
      "ang": 265,
      "Ġreally": 266,
      "ur": 267,
      "Ġor": 268,
      "ight": 269,
      "ab": 270,
      "Ġso": 271,
      "Ġabout": 272,
      "Ġy": 273,
      "hen": 274,
      "Ġwhat": 275,
      "Ġsee": 276,
      "Ġal": 277,
      "ook": 278,
      "Ġjust": 279,
      "ame": 280,
      "ess": 281,
      "fe": 282,
      "'re": 283,
      "Ġdid": 284,
      "Ġlike": 285,
      "'m": 286,
      "Ġch": 287,
      "Ġcon": 288,
      "ive": 289,
      "rom": 290,
      "Ġone": 291,
      "qu": 292,
      "rou": 293,
      "pp": 294,
      "Ġsome": 295,
      "use": 296,
      "Ġmore": 297,
      "est": 298,
      "ard": 299,
      "angu": 300,
      "rent": 301,
      "em": 302,
      "Ġdon": 303,
      "there": 304,
      "aring": 305,
      "Ġpro": 306,
      "Ġasl": 307,
      "Ġthen": 308,
      "Ġlangu": 309,
      "der": 310,
      "Ġup": 311,
      "ish": 312,
      "Ġwork": 313,
      "ime": 314,
      "Ġthem": 315,
      "ol": 316,
      "res": 317,
      "ort": 318,
      "ca": 319,
      "ity": 320,
      "am": 321,
      "Ġlanguage": 322,
      "ain": 323,
      "Ġpoet": 324,
      "Ġif": 325,
      "mb": 326,
      "Ġtr": 327,
      "Ġwho": 328,
      "Ġvery": 329,
      "Ġcomm": 330,
      "ies": 331,
      "ose": 332,
      "itt": 333,
      "cause": 334,
      "Ġhearing": 335,
      "pe": 336,
      "Ġtime": 337,
      "ans": 338,
      "Ġ1": 339,
      "âĢ": 340,
      "Ġse": 341,
      "Ġwr": 342,
      "Ġyear": 343,
      "ght": 344,
      "Ġtheir": 345,
      "Ġyour": 346,
      "Ġdif": 347,
      "form": 348,
      "od": 349,
      "Ġpl": 350,
      "Ġfrom": 351,
      "here": 352,
      "ment": 353,
      "Ġun": 354,
      "Ġ2": 355,
      "gl": 356,
      "this": 357,
      "of": 358,
      "end": 359,
      "Ġout": 360,
      "inct": 361,
      "alk": 362,
      "ide": 363,
      "Ġwhen": 364,
      "ite": 365,
      "Ġsay": 366,
      "one": 367,
      "thing": 368,
      "Ġde": 369,
      "Ġdiffe": 370,
      "Ġexp": 371,
      "what": 372,
      "glish": 373,
      "ool": 374,
      "ie": 375,
      "her": 376,
      "ated": 377,
      "istinct": 378,
      "ake": 379,
      "Ġad": 380,
      "Ġlot": 381,
      "act": 382,
      "Ġlook": 383,
      "'ve": 384,
      "Ġget": 385,
      "erson": 386,
      "'ll": 387,
      "amp": 388,
      "Ġhow": 389,
      "red": 390,
      "Ġcould": 391,
      "Ġper": 392,
      "Ġman": 393,
      "Ġother": 394,
      "iv": 395,
      "iz": 396,
      "oun": 397,
      "Ġthing": 398,
      "chool": 399,
      "indistinct": 400,
      "Ġsa": 401,
      "ass": 402,
      "Ġnow": 403,
      "Ġenglish": 404,
      "oh": 405,
      "with": 406,
      "os": 407,
      "Ġway": 408,
      "ult": 409,
      "'d": 410,
      "Ġtea": 411,
      "ood": 412,
      "Ġdidn": 413,
      "Ġpoetry": 414,
      "Ġright": 415,
      "Ġdifferent": 416,
      ".\"": 417,
      "Ġour": 418,
      "Ġschool": 419,
      "Ġcl": 420,
      "Ġpoem": 421,
      "Ġuse": 422,
      "uc": 423,
      "Ġshe": 424,
      "mber": 425,
      "Ġplay": 426,
      "Ġneed": 427,
      "ok": 428,
      "Ġperson": 429,
      "Ġqu": 430,
      "Ġag": 431,
      "Ġbut": 432,
      "because": 433,
      "are": 434,
      "ack": 435,
      "gh": 436,
      "oll": 437,
      "Ġtalk": 438,
      "Ġdis": 439,
      "ice": 440,
      "Ġfee": 441,
      "ich": 442,
      "Ġac": 443,
      "Ġam": 444,
      "Ġsp": 445,
      "Ġimp": 446,
      "ast": 447,
      "Ġfe": 448,
      "Ġle": 449,
      "ap": 450,
      "ri": 451,
      "ag": 452,
      "Ġpart": 453,
      "Ġmean": 454,
      "Ġany": 455,
      "Ġno": 456,
      "ore": 457,
      "Ġstor": 458,
      "well": 459,
      "ody": 460,
      "cl": 461,
      "irst": 462,
      "Ġalso": 463,
      "te": 464,
      "Ġhas": 465,
      "other": 466,
      "ous": 467,
      "ence": 468,
      "Ġfeel": 469,
      "Ġthou": 470,
      "Ġev": 471,
      "wo": 472,
      "way": 473,
      "Ġthese": 474,
      "âĢĻ": 475,
      "Ġexamp": 476,
      "Ġunder": 477,
      "how": 478,
      "uch": 479,
      "Ġinter": 480,
      "earn": 481,
      "Ġgoing": 482,
      "ild": 483,
      "og": 484,
      "Ġlearn": 485,
      "she": 486,
      "Ġhere": 487,
      "Ġshow": 488,
      "xt": 489,
      "Ġid": 490,
      "Ġthose": 491,
      "Ġhand": 492,
      "ci": 493,
      "my": 494,
      "Ġte": 495,
      "Ġmay": 496,
      "Ġgr": 497,
      "Ġbeen": 498,
      "Ġexample": 499,
      "when": 500,
      "Ġbill": 501,
      "Ġstart": 502,
      "um": 503,
      "ual": 504,
      "ong": 505,
      "Ġfun": 506,
      "ote": 507,
      "Ġ20": 508,
      "oc": 509,
      "Ġsame": 510,
      "Ġask": 511,
      "oy": 512,
      "ative": 513,
      "own": 514,
      "deaf": 515,
      "Ġtry": 516,
      "Ġtwo": 517,
      "Ġby": 518,
      "Ġhapp": 519,
      "ave": 520,
      "sion": 521,
      "ank": 522,
      "Ġback": 523,
      "Ġgrou": 524,
      "Ġstill": 525,
      "Ġcont": 526,
      "body": 527,
      "lp": 528,
      "ue": 529,
      "ater": 530,
      "Ġfirst": 531,
      "ction": 532,
      "Ġthought": 533,
      "Ġnew": 534,
      "Ġmany": 535,
      "Ġunderst": 536,
      "bl": 537,
      "ces": 538,
      "ine": 539,
      "Ġstud": 540,
      "Ġperform": 541,
      "Ġhelp": 542,
      "imes": 543,
      "Ġgroup": 544,
      "Ġar": 545,
      "lack": 546,
      "about": 547,
      "cess": 548,
      "who": 549,
      "resent": 550,
      "Ġsaid": 551,
      "clud": 552,
      "ne": 553,
      "Ġwent": 554,
      "ree": 555,
      "Ġevery": 556,
      "Ġher": 557,
      "Ġstate": 558,
      "Ġcommun": 559,
      "Ġhappen": 560,
      "Ġ3": 561,
      "estion": 562,
      "Ġyears": 563,
      "Ġcome": 564,
      "Ġpre": 565,
      "Ġover": 566,
      "Ġinto": 567,
      "con": 568,
      "ved": 569,
      "Ġact": 570,
      "atch": 571,
      "Ġpr": 572,
      "Ġnext": 573,
      "Ġput": 574,
      "Ġhard": 575,
      "Ġgre": 576,
      "ican": 577,
      "sel": 578,
      "ourse": 579,
      "Ġ201": 580,
      "ance": 581,
      "Ġunderstand": 582,
      "ble": 583,
      "com": 584,
      "Ġsup": 585,
      "Ġmake": 586,
      "ary": 587,
      "ical": 588,
      "fore": 589,
      "pre": 590,
      "Ġdown": 591,
      "member": 592,
      "Ġquestion": 593,
      "ful": 594,
      "no": 595,
      "ase": 596,
      "Ġgot": 597,
      "Ġgood": 598,
      "Ġread": 599,
      "Ġsomething": 600,
      "Ġtrans": 601,
      "Ġthings": 602,
      "ding": 603,
      "gis": 604,
      "ting": 605,
      "Ġcall": 606,
      "Ġcourse": 607,
      "Ġlo": 608,
      "Ġchild": 609,
      "rough": 610,
      "ortant": 611,
      "gisl": 612,
      "li": 613,
      "ught": 614,
      "hed": 615,
      "omet": 616,
      "where": 617,
      "Ġpa": 618,
      "Ġma": 619,
      "Ġblack": 620,
      "ick": 621,
      "Ġbeing": 622,
      "Ġmeet": 623,
      "ways": 624,
      "port": 625,
      "some": 626,
      "yes": 627,
      "Ġsen": 628,
      "erv": 629,
      "Ġhis": 630,
      "each": 631,
      "Ġstr": 632,
      "ress": 633,
      "Ġadd": 634,
      "ound": 635,
      "olle": 636,
      "Ġeven": 637,
      "eri": 638,
      "Ġinte": 639,
      "Ġinclud": 640,
      "Ġwell": 641,
      "Ġkind": 642,
      "Ġimportant": 643,
      "ometimes": 644,
      "day": 645,
      "ep": 646,
      "rest": 647,
      "Ġpass": 648,
      "Ġbo": 649,
      "Ġalways": 650,
      "formation": 651,
      "Ġlegisl": 652,
      "Ġstudent": 653,
      "nd": 654,
      "ward": 655,
      "Ġwhere": 656,
      "Ġmuch": 657,
      "Ġold": 658,
      "then": 659,
      "Ġwasn": 660,
      "rence": 661,
      "Ġwanted": 662,
      "rents": 663,
      "Ġinterest": 664,
      "cher": 665,
      "ire": 666,
      "people": 667,
      "Ġwon": 668,
      "ates": 669,
      "ors": 670,
      "educ": 671,
      "Ġfind": 672,
      "Ġremember": 673,
      "gether": 674,
      "Ġword": 675,
      "Ġdisc": 676,
      "fl": 677,
      "ts": 678,
      "was": 679,
      "Ġcre": 680,
      "Ġmin": 681,
      "Ġtogether": 682,
      "Ġable": 683,
      "olog": 684,
      "00": 685,
      "cre": 686,
      "from": 687,
      "not": 688,
      "orn": 689,
      "Ġcult": 690,
      "ition": 691,
      "Ġbr": 692,
      "Ġdoes": 693,
      "Ġcomp": 694,
      "ms": 695,
      "ull": 696,
      "ually": 697,
      "Ġsure": 698,
      "Ġcame": 699,
      "ited": 700,
      "Ġlet": 701,
      "Ġinterpre": 702,
      "Ġsupport": 703,
      "Ġparents": 704,
      "Ġaf": 705,
      "Ġserv": 706,
      "Ġday": 707,
      "Ġbook": 708,
      "thank": 709,
      "Ġsigns": 710,
      "ations": 711,
      "Ġclass": 712,
      "gr": 713,
      "ily": 714,
      "arch": 715,
      "Ġinformation": 716,
      "let": 717,
      "ices": 718,
      "ittle": 719,
      "Ġstory": 720,
      "ied": 721,
      "king": 722,
      "lt": 723,
      "ating": 724,
      "Ġok": 725,
      "Ġres": 726,
      "Ġmeans": 727,
      "Ġused": 728,
      "itten": 729,
      "Ġstories": 730,
      "Ġart": 731,
      "ip": 732,
      "Ġeduc": 733,
      "Ġlittle": 734,
      "Ġanother": 735,
      "ids": 736,
      "Ġvide": 737,
      "udi": 738,
      "pect": 739,
      "Ġtalking": 740,
      "ving": 741,
      "Ġro": 742,
      "Ġco": 743,
      "Ġfin": 744,
      "lear": 745,
      "eah": 746,
      "Ġjo": 747,
      "which": 748,
      "round": 749,
      "Ġ19": 750,
      "Ġwrite": 751,
      "ek": 752,
      "ves": 753,
      "wn": 754,
      "xual": 755,
      "Ġ(": 756,
      "Ġwatch": 757,
      "iting": 758,
      "Ġfam": 759,
      "Ġbecause": 760,
      "Ġshould": 761,
      "Ġagain": 762,
      "Ġamer": 763,
      "Ġfelt": 764,
      "cial": 765,
      "Ġpassed": 766,
      "Ġ4": 767,
      "Ġta": 768,
      "Ġapp": 769,
      "Ġaudi": 770,
      "Ġtoo": 771,
      "Ġfa": 772,
      "ission": 773,
      "Ġlast": 774,
      "Ġinv": 775,
      "Ġname": 776,
      "Ġoff": 777,
      "Ġform": 778,
      "Ġonly": 779,
      "Ġcommitt": 780,
      "Ġwritten": 781,
      "Ġexperi": 782,
      "Ġteacher": 783,
      "Ġwonder": 784,
      "may": 785,
      "ather": 786,
      "Ġweek": 787,
      "Ġexc": 788,
      "lain": 789,
      "Ġsaying": 790,
      "Ġfunding": 791,
      "cond": 792,
      "Ġgreat": 793,
      "Ġcalled": 794,
      "Ġchildren": 795,
      "flu": 796,
      "have": 797,
      "ia": 798,
      "mo": 799,
      "Ġthrough": 800,
      "vel": 801,
      "Ġrese": 802,
      "ession": 803,
      "ference": 804,
      "Ġmaybe": 805,
      "Ġservices": 806,
      ",\"": 807,
      "app": 808,
      "ape": 809,
      "bs": 810,
      "do": 811,
      "man": 812,
      "present": 813,
      "ru": 814,
      "sh": 815,
      "Ġeach": 816,
      "ature": 817,
      "Ġmet": 818,
      "ason": 819,
      "Ġhim": 820,
      "Ġlater": 821,
      "Ġgive": 822,
      "Ġreal": 823,
      "Ġwhich": 824,
      "ize": 825,
      "Ġteach": 826,
      "Ġidea": 827,
      "Ġtrying": 828,
      "like": 829,
      "Ġstudents": 830,
      "maybe": 831,
      "come": 832,
      "ubl": 833,
      "ouse": 834,
      "ings": 835,
      "Ġca": 836,
      "ope": 837,
      "ade": 838,
      "able": 839,
      "Ġexplain": 840,
      "Ġtransl": 841,
      "Ġdiscus": 842,
      "Ġculture": 843,
      "ber": 844,
      "na": 845,
      "nes": 846,
      "pt": 847,
      "sm": 848,
      "ug": 849,
      "Ġinflu": 850,
      "Ġnu": 851,
      "eter": 852,
      "Ġear": 853,
      "Ġbefore": 854,
      "Ġdoing": 855,
      "Ġvote": 856,
      "Ġasked": 857,
      "Ġcommunity": 858,
      "self": 859,
      "Ġinteresting": 860,
      "gram": 861,
      "velop": 862,
      "Ġresearch": 863,
      "ced": 864,
      "ious": 865,
      "Ġ...": 866,
      "Ġtake": 867,
      "ory": 868,
      "Ġcolle": 869,
      "Ġball": 870,
      "ational": 871,
      "Ġmove": 872,
      "Ġprogram": 873,
      "Ġsaw": 874,
      "Ġstarted": 875,
      "af": 876,
      "every": 877,
      "sp": 878,
      "hell": 879,
      "Ġaround": 880,
      "int": 881,
      "oman": 882,
      "Ġrequ": 883,
      "Ġemp": 884,
      "Ġwhy": 885,
      "Ġsigned": 886,
      "Ġconference": 887,
      "Ġcommission": 888,
      "Ġdec": 889,
      "Ġcommittee": 890,
      "de": 891,
      "ven": 892,
      "Ġsometimes": 893,
      "ities": 894,
      "ens": 895,
      "ead": 896,
      "als": 897,
      "Ġusing": 898,
      "Ġyes": 899,
      "Ġdevelop": 900,
      "Ġgrow": 901,
      "Ġactually": 902,
      "Ġlove": 903,
      "Ġboth": 904,
      "Ġamerican": 905,
      "mm": 906,
      "til": 907,
      "tain": 908,
      "Ġ$": 909,
      "Ġ5": 910,
      "ĠâĢ": 911,
      "Ġpresent": 912,
      "Ġfound": 913,
      "Ġown": 914,
      "lease": 915,
      "eep": 916,
      "Ġpol": 917,
      "Ġseem": 918,
      "Ġprov": 919,
      "oss": 920,
      "riend": 921,
      "Ġtell": 922,
      "ughter": 923,
      "nesot": 924,
      "just": 925,
      "oice": 926,
      "yeah": 927,
      "any": 928,
      "Ġspe": 929,
      "Ġthan": 930,
      "Ġph": 931,
      "Ġbet": 932,
      "Ġlit": 933,
      "Ġgu": 934,
      "icul": 935,
      "Ġeas": 936,
      "ute": 937,
      "ized": 938,
      "Ġlearned": 939,
      "Ġeducation": 940,
      "Ġexperience": 941,
      "az": 942,
      "go": 943,
      "les": 944,
      "Ġ[": 945,
      "Ġmade": 946,
      "Ġhope": 947,
      "also": 948,
      "vers": 949,
      "Ġkids": 950,
      "Ġsigning": 951,
      "Ġmother": 952,
      "laughter": 953,
      "abil": 954,
      "Ġworking": 955,
      "Ġsecond": 956,
      "ount": 957,
      "Ġteam": 958,
      "ollow": 959,
      "Ġfew": 960,
      "blind": 961,
      "Ġcommunic": 962,
      "Ġafter": 963,
      "hello": 964,
      "du": 965,
      "mer": 966,
      "ness": 967,
      "right": 968,
      "vie": 969,
      "Ġtend": 970,
      "heck": 971,
      "read": 972,
      "Ġsim": 973,
      "Ġpla": 974,
      "Ġhouse": 975,
      "Ġla": 976,
      "Ġop": 977,
      "irl": 978,
      "lause": 979,
      "urn": 980,
      "Ġminnesot": 981,
      "by": 982,
      "ell": 983,
      "hh": 984,
      "ile": 985,
      "je": 986,
      "led": 987,
      "ange": 988,
      "Ġsuch": 989,
      "Ġlsm": 990,
      "Ġbel": 991,
      "Ġwhite": 992,
      "ife": 993,
      "mbers": 994,
      "Ġlooked": 995,
      "ives": 996,
      "Ġspea": 997,
      "Ġevent": 998,
      "Ġcontact": 999,
      "ched": 1000,
      "joy": 1001,
      "part": 1002,
      "ra": 1003,
      "side": 1004,
      "Ġwa": 1005,
      "Ġsur": 1006,
      "onna": 1007,
      "Ġcur": 1008,
      "Ġclear": 1009,
      "Ġmat": 1010,
      "Ġment": 1011,
      "Ġlong": 1012,
      "Ġgirl": 1013,
      "Ġworld": 1014,
      "Ġend": 1015,
      "uring": 1016,
      "olved": 1017,
      "Ġpoems": 1018,
      "Ġaccess": 1019,
      "new": 1020,
      "ft": 1021,
      "get": 1022,
      "loy": 1023,
      "ty": 1024,
      "ues": 1025,
      "Ġtest": 1026,
      "Ġsm": 1027,
      "ences": 1028,
      "Ġfr": 1029,
      "Ġfriend": 1030,
      "ished": 1031,
      "Ġloss": 1032,
      "Ġgen": 1033,
      "ict": 1034,
      "ically": 1035,
      "Ġreg": 1036,
      "ided": 1037,
      "chn": 1038,
      "Ġass": 1039,
      "Ġnever": 1040,
      "Ġpoets": 1041,
      "Ġbills": 1042,
      "Ġcontin": 1043,
      "Ġhappened": 1044,
      "comm": 1045,
      "Ġquestions": 1046,
      "Ġsimil": 1047,
      "eas": 1048,
      "ial": 1049,
      "ny": 1050,
      "wed": 1051,
      "Ġ'": 1052,
      "Ġsy": 1053,
      "Ġtold": 1054,
      "Ġfollow": 1055,
      "Ġbu": 1056,
      "Ġbig": 1057,
      "Ġind": 1058,
      "Ġnight": 1059,
      "alli": 1060,
      "Ġkeep": 1061,
      "ween": 1062,
      "why": 1063,
      "ules": 1064,
      "Ġenjoy": 1065,
      "Ġtried": 1066,
      "Ġwhole": 1067,
      "Ġwrote": 1068,
      "Ġcouldn": 1069,
      "Ġleft": 1070,
      "Ġmeaning": 1071,
      "Ġtechn": 1072,
      "Ġ2018": 1073,
      "Ġlegislative": 1074,
      "Ġwords": 1075,
      "Ġinterpreter": 1076,
      "Ġteachers": 1077,
      "Ġexcited": 1078,
      "applause": 1079,
      "ublic": 1080,
      "Ġmovement": 1081,
      "ject": 1082,
      "Ġsimilar": 1083,
      "ball": 1084,
      "ible": 1085,
      "Ġ6": 1086,
      "Ġfine": 1087,
      "Ġgonna": 1088,
      "ics": 1089,
      "Ġele": 1090,
      "Ġmost": 1091,
      "Ġworked": 1092,
      "Ġlooking": 1093,
      "Ġschools": 1094,
      "Ġmeeting": 1095,
      "ĠâĢľ": 1096,
      "Ġseemed": 1097,
      "Ġminnesota": 1098,
      "el": 1099,
      "gin": 1100,
      "has": 1101,
      "ib": 1102,
      "sa": 1103,
      "will": 1104,
      "hearing": 1105,
      "Ġset": 1106,
      "Ġtook": 1107,
      "ise": 1108,
      "used": 1109,
      "Ġrec": 1110,
      "Ġreason": 1111,
      "were": 1112,
      "Ġdeafblind": 1113,
      "Ġwouldn": 1114,
      "before": 1115,
      "Ġrules": 1116,
      "Ġsomebody": 1117,
      "Ġwriting": 1118,
      "Ġplan": 1119,
      "ages": 1120,
      "Ġident": 1121,
      "Ġideas": 1122,
      "selves": 1123,
      "Ġincluded": 1124,
      "Ġcomple": 1125,
      "Ġvideo": 1126,
      "Ġfamily": 1127,
      "Ġinvolved": 1128,
      "Ġwonderful": 1129,
      "Ġdiscuss": 1130,
      "Ġinfluence": 1131,
      "Ġopen": 1132,
      "came": 1133,
      "gan": 1134,
      "sometimes": 1135,
      "ten": 1136,
      "vis": 1137,
      "wor": 1138,
      "Ġty": 1139,
      "head": 1140,
      "Ġsk": 1141,
      "atr": 1142,
      "outh": 1143,
      "ough": 1144,
      "Ġthank": 1145,
      "Ġcheck": 1146,
      "Ġmind": 1147,
      "andid": 1148,
      "Ġtop": 1149,
      "alth": 1150,
      "Ġwebs": 1151,
      "igh": 1152,
      "vern": 1153,
      "Ġvot": 1154,
      "ural": 1155,
      "Ġdone": 1156,
      "Ġprof": 1157,
      "âĢĿ": 1158,
      "Ġsenate": 1159,
      "Ġinclude": 1160,
      "Ġaudience": 1161,
      "Ġprovide": 1162,
      "Ġeasy": 1163,
      "air": 1164,
      "hy": 1165,
      "ss": 1166,
      "ton": 1167,
      "uck": 1168,
      "yball": 1169,
      "Ġter": 1170,
      "Ġaw": 1171,
      "another": 1172,
      "Ġsum": 1173,
      "Ġsession": 1174,
      "ator": 1175,
      "Ġthree": 1176,
      "Ġplease": 1177,
      "Ġmar": 1178,
      "Ġmight": 1179,
      "Ġdr": 1180,
      "Ġdire": 1181,
      "ased": 1182,
      "Ġfoc": 1183,
      "Ġborn": 1184,
      "your": 1185,
      "their": 1186,
      "Ġint": 1187,
      "omin": 1188,
      "aly": 1189,
      "Ġrep": 1190,
      "Ġbecome": 1191,
      "Ġknew": 1192,
      "Ġabc": 1193,
      "Ġnotice": 1194,
      "Ġvis": 1195,
      "Ġcoming": 1196,
      "Ġgovern": 1197,
      "Ġchang": 1198,
      "Ġ10": 1199,
      "ucus": 1200,
      "Ġplayers": 1201,
      "Ġstrong": 1202,
      "olleyball": 1203,
      "Ġcreate": 1204,
      "Ġjoin": 1205,
      "Ġcaucus": 1206,
      "Ġemploy": 1207,
      "Ġbelie": 1208,
      "br": 1209,
      "dhh": 1210,
      "ever": 1211,
      "ix": 1212,
      "ks": 1213,
      "kes": 1214,
      "vious": 1215,
      "ww": 1216,
      "âĻ": 1217,
      "Ġturn": 1218,
      "Ġaward": 1219,
      "Ġwalk": 1220,
      "Ġsound": 1221,
      "Ġim": 1222,
      "Ġcap": 1223,
      "Ġcandid": 1224,
      "Ġpar": 1225,
      "ither": 1226,
      "Ġhome": 1227,
      "Ġincre": 1228,
      "through": 1229,
      "alls": 1230,
      "Ġhead": 1231,
      "see": 1232,
      "Ġallow": 1233,
      "Ġvalli": 1234,
      "Ġvolleyball": 1235,
      "Ġthemselves": 1236,
      "ments": 1237,
      "Ġquite": 1238,
      "Ġimpact": 1239,
      "ological": 1240,
      "Ġdoesn": 1241,
      "Ġinterpret": 1242,
      "Ġnumber": 1243,
      "Ġdecided": 1244,
      "Ġidentity": 1245,
      "Ġcomplete": 1246,
      "âĻª": 1247,
      "?\"": 1248,
      "cy": 1249,
      "che": 1250,
      "ian": 1251,
      "ient": 1252,
      "ivers": 1253,
      "lated": 1254,
      "pr": 1255,
      "sign": 1256,
      "uth": 1257,
      "Ġage": 1258,
      "Ġahead": 1259,
      "ince": 1260,
      "Ġsort": 1261,
      "Ġtoday": 1262,
      "Ġfl": 1263,
      "Ġfil": 1264,
      "Ġbit": 1265,
      "Ġbody": 1266,
      "Ġho": 1267,
      "Ġopp": 1268,
      "Ġann": 1269,
      "Ġyouth": 1270,
      "Ġnam": 1271,
      "Ġgall": 1272,
      "Ġrece": 1273,
      "Ġhealth": 1274,
      "Ġmex": 1275,
      "Ġpoint": 1276,
      "Ġmyself": 1277,
      "Ġshape": 1278,
      "Ġthinking": 1279,
      "Ġproble": 1280,
      "Ġseen": 1281,
      "Ġdisabil": 1282,
      "Ġstudy": 1283,
      "Ġgrew": 1284,
      "Ġwatching": 1285,
      "presentative": 1286,
      "Ġballot": 1287,
      "Ġspecial": 1288,
      "Ġcommunication": 1289,
      "Ġcontinue": 1290,
      "Ġwebsite": 1291,
      "cur": 1292,
      "did": 1293,
      "fer": 1294,
      "first": 1295,
      "had": 1296,
      "po": 1297,
      "woman": 1298,
      "Ġ9": 1299,
      "hether": 1300,
      "Ġsuc": 1301,
      "ertain": 1302,
      "Ġcla": 1303,
      "Ġcount": 1304,
      "Ġmon": 1305,
      "asl": 1306,
      "Ġbl": 1307,
      "Ġbest": 1308,
      "Ġhist": 1309,
      "Ġlist": 1310,
      "Ġloc": 1311,
      "Ġoh": 1312,
      "Ġanaly": 1313,
      "Ġinst": 1314,
      "those": 1315,
      "ety": 1316,
      "Ġel": 1317,
      "Ġbegin": 1318,
      "ctor": 1319,
      "Ġonce": 1320,
      "cept": 1321,
      "adem": 1322,
      "Ġjun": 1323,
      "Ġatt": 1324,
      "Ġlive": 1325,
      "ateg": 1326,
      "Ġvar": 1327,
      "Ġvoice": 1328,
      "ards": 1329,
      "Ġprodu": 1330,
      "Ġtrue": 1331,
      "Ġadv": 1332,
      "osed": 1333,
      "ults": 1334,
      "Ġclose": 1335,
      "Ġacadem": 1336,
      "Ġgrad": 1337,
      "Ġaddress": 1338,
      "Ġbring": 1339,
      "Ġtaught": 1340,
      "Ġrequire": 1341,
      "icular": 1342,
      "Ġplace": 1343,
      "Ġbuild": 1344,
      "aud": 1345,
      "can": 1346,
      "cdhh": 1347,
      "even": 1348,
      "fic": 1349,
      "ger": 1350,
      "got": 1351,
      "ier": 1352,
      "ired": 1353,
      "min": 1354,
      "ncdhh": 1355,
      "per": 1356,
      "sy": 1357,
      "tty": 1358,
      "would": 1359,
      "Ġent": 1360,
      "into": 1361,
      "Ġwoman": 1362,
      "Ġswed": 1363,
      "Ġtheater": 1364,
      "ators": 1365,
      "Ġcr": 1366,
      "Ġcent": 1367,
      "Ġpeter": 1368,
      "Ġpublic": 1369,
      "Ġmen": 1370,
      "Ġmus": 1371,
      "Ġfol": 1372,
      "Ġfull": 1373,
      "Ġfather": 1374,
      "Ġlar": 1375,
      "Ġlea": 1376,
      "Ġlife": 1377,
      "Ġob": 1378,
      "vey": 1379,
      "Ġgiv": 1380,
      "icy": 1381,
      "ions": 1382,
      "Ġstand": 1383,
      "Ġiss": 1384,
      "veral": 1385,
      "oose": 1386,
      "stem": 1387,
      "ird": 1388,
      "Ġpost": 1389,
      "erspect": 1390,
      "Ġshare": 1391,
      "Ġexpress": 1392,
      "ization": 1393,
      "apes": 1394,
      "Ġparty": 1395,
      "Ġparticular": 1396,
      "Ġfund": 1397,
      "ology": 1398,
      "most": 1399,
      "Ġteaching": 1400,
      "after": 1401,
      "Ġguess": 1402,
      "ready": 1403,
      "Ġlaw": 1404,
      "Ġwait": 1405,
      "atrick": 1406,
      "Ġcompletely": 1407,
      "Ġfilm": 1408,
      "Ġgallaud": 1409,
      "Ġgallaudet": 1410,
      "gen": 1411,
      "ior": 1412,
      "iqu": 1413,
      "ken": 1414,
      "look": 1415,
      "mit": 1416,
      "ning": 1417,
      "over": 1418,
      "ph": 1419,
      "sw": 1420,
      "son": 1421,
      "ub": 1422,
      "Ġest": 1423,
      "Ġauth": 1424,
      "Ġce": 1425,
      "Ġcar": 1426,
      "Ġpast": 1427,
      "Ġmed": 1428,
      "Ġmis": 1429,
      "Ġmom": 1430,
      "Ġdist": 1431,
      "Ġduring": 1432,
      "Ġfig": 1433,
      "Ġfact": 1434,
      "Ġfree": 1435,
      "Ġbab": 1436,
      "Ġnational": 1437,
      "icip": 1438,
      "Ġeither": 1439,
      "Ġwhile": 1440,
      "until": 1441,
      "ants": 1442,
      "Ġorgan": 1443,
      "Ġalready": 1444,
      "Ġchair": 1445,
      "pping": 1446,
      "Ġlanguages": 1447,
      "Ġ12": 1448,
      "Ġsexual": 1449,
      "Ġseveral": 1450,
      "Ġdiffic": 1451,
      "Ġgetting": 1452,
      "again": 1453,
      "Ġintern": 1454,
      "Ġhands": 1455,
      "Ġnews": 1456,
      "Ġperformance": 1457,
      "Ġeveryone": 1458,
      "Ġeverything": 1459,
      "Ġeverybody": 1460,
      "Ġsenator": 1461,
      "Ġaddition": 1462,
      "Ġlegislature": 1463,
      "thanks": 1464,
      "Ġpolicy": 1465,
      "Ġbetter": 1466,
      "Ġliter": 1467,
      "view": 1468,
      "Ġspeaking": 1469,
      "Ġsmall": 1470,
      "Ġfriends": 1471,
      "Ġprofession": 1472,
      "Ġsummer": 1473,
      "Ġgovernor": 1474,
      "Ġbelieve": 1475,
      "Ġincrease": 1476,
      "Ġproblem": 1477,
      "Ġjune": 1478,
      "Ġgradu": 1479,
      "Ġfigure": 1480,
      "Ġdifficult": 1481,
      "ha": 1482,
      "ned": 1483,
      "pa": 1484,
      "pl": 1485,
      "par": 1486,
      "ted": 1487,
      "Ġ&": 1488,
      "Ġ-": 1489,
      "Ġwom": 1490,
      "reed": 1491,
      "representative": 1492,
      "Ġsend": 1493,
      "org": 1494,
      "Ġcol": 1495,
      "Ġcare": 1496,
      "Ġcateg": 1497,
      "Ġpull": 1498,
      "Ġpict": 1499,
      "Ġmust": 1500,
      "Ġda": 1501,
      "eds": 1502,
      "Ġhous": 1503,
      "Ġnice": 1504,
      "Ġgave": 1505,
      "ality": 1506,
      "Ġequ": 1507,
      "Ġheld": 1508,
      "ident": 1509,
      "sol": 1510,
      "Ġstage": 1511,
      "Ġmembers": 1512,
      "fort": 1513,
      "Ġexact": 1514,
      "Ġoral": 1515,
      "fect": 1516,
      "Ġchoose": 1517,
      "esture": 1518,
      "Ġupd": 1519,
      "osexual": 1520,
      "Ġseason": 1521,
      "Ġuntil": 1522,
      "Ġdep": 1523,
      "Ġadults": 1524,
      "Ġneeded": 1525,
      "Ġago": 1526,
      "Ġamaz": 1527,
      "Ġanything": 1528,
      "Ġthough": 1529,
      "Ġperforming": 1530,
      "Ġpretty": 1531,
      "ept": 1532,
      "Ġfinance": 1533,
      "Ġjob": 1534,
      "Ġ198": 1535,
      "Ġmetro": 1536,
      "Ġdiscussion": 1537,
      "Ġcollect": 1538,
      "Ġcollege": 1539,
      "Ġbetween": 1540,
      "commod": 1541,
      "work": 1542,
      "Ġskill": 1543,
      "Ġfocus": 1544,
      "Ġcapt": 1545,
      "Ġcandidates": 1546,
      "Ġsuccess": 1547,
      "Ġmusic": 1548,
      "Ġbaby": 1549,
      "Ġpicture": 1550,
      "ail": 1551,
      "bo": 1552,
      "black": 1553,
      "cing": 1554,
      "his": 1555,
      "iers": 1556,
      "imp": 1557,
      "more": 1558,
      "ner": 1559,
      "sure": 1560,
      "tid": 1561,
      "Ġ7": 1562,
      "Ġu": 1563,
      "Ġtimes": 1564,
      "includ": 1565,
      "related": 1566,
      "Ġcor": 1567,
      "Ġcook": 1568,
      "Ġpay": 1569,
      "Ġpick": 1570,
      "Ġperspect": 1571,
      "Ġmain": 1572,
      "Ġfut": 1573,
      "Ġfla": 1574,
      "Ġbus": 1575,
      "Ġbea": 1576,
      "Ġbad": 1577,
      "Ġless": 1578,
      "Ġlead": 1579,
      "ower": 1580,
      "iced": 1581,
      "ets": 1582,
      "Ġever": 1583,
      "iger": 1584,
      "Ġbecame": 1585,
      "Ġhear": 1586,
      "Ġstop": 1587,
      "ently": 1588,
      "Ġforward": 1589,
      "ify": 1590,
      "add": 1591,
      "Ġarea": 1592,
      "ustr": 1593,
      "lake": 1594,
      "atever": 1595,
      "Ġsho": 1596,
      "Ġra": 1597,
      "Ġorient": 1598,
      "ably": 1599,
      "Ġseems": 1600,
      "Ġproject": 1601,
      "Ġtrain": 1602,
      "itting": 1603,
      "Ġdifference": 1604,
      "Ġplaying": 1605,
      "Ġneeds": 1606,
      "Ġagree": 1607,
      "Ġaccommod": 1608,
      "aph": 1609,
      "Ġlearning": 1610,
      "Ġhandsh": 1611,
      "Ġcreated": 1612,
      "Ġvideot": 1613,
      "Ġsurvey": 1614,
      "Ġmatter": 1615,
      "Ġgener": 1616,
      "Ġassist": 1617,
      "Ġtyp": 1618,
      "iversity": 1619,
      "Ġnamed": 1620,
      "Ġclapping": 1621,
      "Ġhistory": 1622,
      "Ġanalyz": 1623,
      "Ġacademies": 1624,
      "Ġfuture": 1625,
      "Ġorientation": 1626,
      "back": 1627,
      "ees": 1628,
      "fin": 1629,
      "flake": 1630,
      "nu": 1631,
      "pon": 1632,
      "ple": 1633,
      "person": 1634,
      "Ġtv": 1635,
      "Ġaug": 1636,
      "really": 1637,
      "ances": 1638,
      "Ġsl": 1639,
      "Ġsor": 1640,
      "Ġiad": 1641,
      "orm": 1642,
      "ingu": 1643,
      "Ġcoll": 1644,
      "Ġpur": 1645,
      "itical": 1646,
      "asc": 1647,
      "enced": 1648,
      "Ġfar": 1649,
      "Ġfall": 1650,
      "isc": 1651,
      "Ġlink": 1652,
      "these": 1653,
      "lect": 1654,
      "Ġhaving": 1655,
      "Ġrest": 1656,
      "Ġem": 1657,
      "Ġheard": 1658,
      "ides": 1659,
      "nowflake": 1660,
      "stru": 1661,
      "Ġmovie": 1662,
      "Ġwithin": 1663,
      "ours": 1664,
      "Ġrhy": 1665,
      "Ġgoes": 1666,
      "Ġhadn": 1667,
      "Ġenc": 1668,
      "abor": 1669,
      "Ġyeah": 1670,
      "Ġchange": 1671,
      "Ġcons": 1672,
      "Ġprocess": 1673,
      "ression": 1674,
      "Ġdepart": 1675,
      "Ġways": 1676,
      "Ġparticip": 1677,
      "Ġasking": 1678,
      "Ġgroups": 1679,
      "Ġarr": 1680,
      "Ġ30": 1681,
      "Ġ2015": 1682,
      "Ġmaj": 1683,
      "epend": 1684,
      "Ġolder": 1685,
      "Ġminute": 1686,
      "000": 1687,
      "Ġclassif": 1688,
      "Ġresult": 1689,
      "Ġnumbers": 1690,
      "Ġearly": 1691,
      "everybody": 1692,
      "Ġgrowing": 1693,
      "Ġfrustr": 1694,
      "Ġregist": 1695,
      "Ġelection": 1696,
      "Ġinterpreters": 1697,
      "poet": 1698,
      "sych": 1699,
      "Ġfolks": 1700,
      "Ġmiss": 1701,
      "Ġamazing": 1702,
      "Ġflag": 1703,
      "Ġbeaut": 1704,
      "number": 1705,
      "Ġcollabor": 1706,
      "ac": 1707,
      "ai": 1708,
      "ach": 1709,
      "bor": 1710,
      "da": 1711,
      "full": 1712,
      "hood": 1713,
      "iad": 1714,
      "ling": 1715,
      "line": 1716,
      "mncdhh": 1717,
      "pro": 1718,
      "please": 1719,
      "tr": 1720,
      "tin": 1721,
      "tle": 1722,
      "wow": 1723,
      "Ġve": 1724,
      "Ġtiger": 1725,
      "Ġaway": 1726,
      "ins": 1727,
      "ines": 1728,
      "iness": 1729,
      "inting": 1730,
      "Ġwall": 1731,
      "Ġwind": 1732,
      "Ġwhether": 1733,
      "Ġsc": 1734,
      "Ġsun": 1735,
      "Ġsouth": 1736,
      "Ġsnowflake": 1737,
      "ata": 1738,
      "onological": 1739,
      "Ġcal": 1740,
      "Ġcity": 1741,
      "Ġcoun": 1742,
      "Ġpres": 1743,
      "Ġmill": 1744,
      "Ġdes": 1745,
      "Ġdata": 1746,
      "itch": 1747,
      "itive": 1748,
      "english": 1749,
      "Ġfit": 1750,
      "Ġfasc": 1751,
      "Ġbas": 1752,
      "Ġlingu": 1753,
      "Ġyoun": 1754,
      "Ġgay": 1755,
      "Ġgesture": 1756,
      "Ġits": 1757,
      "Ġrel": 1758,
      "Ġrepresent": 1759,
      "soci": 1760,
      "Ġstep": 1761,
      "Ġstates": 1762,
      "ops": 1763,
      "Ġkept": 1764,
      "Ġpos": 1765,
      "Ġjim": 1766,
      "room": 1767,
      "ility": 1768,
      "Ġsocial": 1769,
      "Ġaler": 1770,
      "Ġchoice": 1771,
      "Ġconstru": 1772,
      "Ġsecre": 1773,
      "Ġtalked": 1774,
      "aps": 1775,
      "Ġnothing": 1776,
      "Ġunderstood": 1777,
      "Ġhappens": 1778,
      "Ġprefer": 1779,
      "Ġreading": 1780,
      "Ġmeetings": 1781,
      "Ġstrug": 1782,
      "Ġevening": 1783,
      "Ġcultural": 1784,
      "Ġfinally": 1785,
      "Ġexciting": 1786,
      "Ġrealized": 1787,
      "Ġtranslate": 1788,
      "Ġprograms": 1789,
      "Ġrequest": 1790,
      "Ġemphas": 1791,
      "Ġ50": 1792,
      "Ġpolitical": 1793,
      "Ġphonological": 1794,
      "Ġspeak": 1795,
      "Ġsystem": 1796,
      "Ġvoting": 1797,
      "Ġterms": 1798,
      "Ġintro": 1799,
      "Ġmexic": 1800,
      "Ġdisability": 1801,
      "Ġvari": 1802,
      "Ġadvoc": 1803,
      "Ġlarge": 1804,
      "Ġorganization": 1805,
      "Ġadditional": 1806,
      "Ġliterature": 1807,
      "Ġgraduated": 1808,
      "both": 1809,
      "Ġaugust": 1810,
      "Ġencour": 1811,
      "Ġdepartment": 1812,
      "poetry": 1813,
      "Ġbeautif": 1814,
      "Ġfascin": 1815,
      "Ġlinguist": 1816,
      "20": 1817,
      "ace": 1818,
      "bet": 1819,
      "bably": 1820,
      "duc": 1821,
      "hmm": 1822,
      "ls": 1823,
      "last": 1824,
      "nam": 1825,
      "old": 1826,
      "ps": 1827,
      "peter": 1828,
      "ral": 1829,
      "two": 1830,
      "Ġtit": 1831,
      "ream": 1832,
      "Ġside": 1833,
      "Ġsched": 1834,
      "Ġsitting": 1835,
      "Ġill": 1836,
      "ont": 1837,
      "ories": 1838,
      "Ġcit": 1839,
      "Ġcod": 1840,
      "Ġcell": 1841,
      "Ġcertain": 1842,
      "Ġpsych": 1843,
      "Ġmess": 1844,
      "lling": 1845,
      "Ġdead": 1846,
      "Ġdomin": 1847,
      "its": 1848,
      "Ġbi": 1849,
      "Ġhigh": 1850,
      "Ġlay": 1851,
      "youts": 1852,
      "arily": 1853,
      "vered": 1854,
      "leep": 1855,
      "Ġntid": 1856,
      "Ġweren": 1857,
      "ioned": 1858,
      "Ġbell": 1859,
      "Ġheart": 1860,
      "idual": 1861,
      "Ġwhatever": 1862,
      "iforn": 1863,
      "under": 1864,
      "Ġpointing": 1865,
      "Ġmoved": 1866,
      "Ġmode": 1867,
      "rences": 1868,
      "Ġnecess": 1869,
      "Ġliving": 1870,
      "Ġnoticed": 1871,
      "Ġshort": 1872,
      "Ġrich": 1873,
      "imin": 1874,
      "imary": 1875,
      "Ġgoal": 1876,
      "Ġenough": 1877,
      "Ġsoon": 1878,
      "Ġalong": 1879,
      "Ġchar": 1880,
      "Ġconf": 1881,
      "ortun": 1882,
      "Ġ17": 1883,
      "off": 1884,
      "iving": 1885,
      "ividual": 1886,
      "ohn": 1887,
      "ried": 1888,
      "Ġprop": 1889,
      "Ġpract": 1890,
      "Ġprimary": 1891,
      "Ġunderstanding": 1892,
      "Ġready": 1893,
      "Ġtransgen": 1894,
      "Ġlegislators": 1895,
      "wards": 1896,
      "Ġsupports": 1897,
      "Ġrespon": 1898,
      "Ġroom": 1899,
      "Ġfamil": 1900,
      "Ġaudiences": 1901,
      "Ġmental": 1902,
      "Ġgirls": 1903,
      "Ġindividual": 1904,
      "Ġtechniqu": 1905,
      "Ġchanged": 1906,
      "Ġhost": 1907,
      "Ġopportun": 1908,
      "Ġreceive": 1909,
      "Ġleave": 1910,
      "Ġgiven": 1911,
      "Ġwomen": 1912,
      "Ġhousing": 1913,
      "Ġexactly": 1914,
      "Ġperspectives": 1915,
      "Ġleaders": 1916,
      "Ġclassifiers": 1917,
      "Ġcaliforn": 1918,
      "Ġmillion": 1919,
      "Ġbeautiful": 1920,
      "between": 1921,
      "Ġcitiz": 1922,
      "Ġtransgender": 1923,
      "Ġcalifornia": 1924,
      ").": 1925,
      "bb": 1926,
      "bru": 1927,
      "cer": 1928,
      "cil": 1929,
      "den": 1930,
      "dif": 1931,
      "ex": 1932,
      "gle": 1933,
      "hip": 1934,
      "haps": 1935,
      "lf": 1936,
      "lo": 1937,
      "nt": 1938,
      "oon": 1939,
      "row": 1940,
      "ric": 1941,
      "ricul": 1942,
      "sd": 1943,
      "time": 1944,
      "ued": 1945,
      "vai": 1946,
      "want": 1947,
      "ying": 1948,
      "ĠâĻª": 1949,
      "Ġtree": 1950,
      "Ġaction": 1951,
      "Ġapr": 1952,
      "Ġavai": 1953,
      "Ġwat": 1954,
      "Ġwea": 1955,
      "Ġwish": 1956,
      "reat": 1957,
      "reet": 1958,
      "remember": 1959,
      "aning": 1960,
      "Ġson": 1961,
      "ath": 1962,
      "ats": 1963,
      "ony": 1964,
      "Ġcop": 1965,
      "Ġpain": 1966,
      "Ġpie": 1967,
      "Ġmouth": 1968,
      "Ġdan": 1969,
      "ites": 1970,
      "Ġfour": 1971,
      "Ġbro": 1972,
      "Ġhon": 1973,
      "Ġhom": 1974,
      "Ġang": 1975,
      "Ġinsp": 1976,
      "Ġinside": 1977,
      "using": 1978,
      "thm": 1979,
      "Ġoften": 1980,
      "Ġhaven": 1981,
      "ication": 1982,
      "icate": 1983,
      "igin": 1984,
      "Ġbecom": 1985,
      "allen": 1986,
      "iday": 1987,
      "Ġstat": 1988,
      "Ġstreet": 1989,
      "cture": 1990,
      "Ġforgot": 1991,
      "Ġken": 1992,
      "mem": 1993,
      "Ġassoci": 1994,
      "Ġdeafness": 1995,
      "eech": 1996,
      "und": 1997,
      "Ġjan": 1998,
      "ross": 1999,
      "Ġknown": 2000,
      "Ġneigh": 2001,
      "Ġext": 2002,
      "Ġexpect": 2003,
      "Ġdoor": 2004,
      "Ġcannot": 2005,
      "lable": 2006,
      "Ġvie": 2007,
      "Ġsha": 2008,
      "Ġshut": 2009,
      "Ġcomes": 2010,
      "Ġorder": 2011,
      "abl": 2012,
      "Ġyell": 2013,
      "Ġalmost": 2014,
      "Ġconside": 2015,
      "Ġprobably": 2016,
      "Ġupon": 2017,
      "aint": 2018,
      "Ġtryouts": 2019,
      "Ġuniversity": 2020,
      "Ġlooks": 2021,
      "ived": 2022,
      "Ġfebru": 2023,
      "Ġanyway": 2024,
      "however": 2025,
      "Ġinterview": 2026,
      "Ġshowed": 2027,
      "Ġhappening": 2028,
      "contin": 2029,
      "Ġ2017": 2030,
      "Ġmaking": 2031,
      "Ġsense": 2032,
      "Ġletter": 2033,
      "Ġrespect": 2034,
      "Ġ196": 2035,
      "Ġ197": 2036,
      "Ġfamous": 2037,
      "Ġameric": 2038,
      "Ġtaking": 2039,
      "Ġapply": 2040,
      "Ġformal": 2041,
      "Ġweeks": 2042,
      "Ġrealize": 2043,
      "Ġtranslation": 2044,
      "aff": 2045,
      "Ġdeveloped": 2046,
      "Ġcommunicate": 2047,
      "Ġcurrent": 2048,
      "Ġclearly": 2049,
      "uesday": 2050,
      "Ġtechnology": 2051,
      "ibility": 2052,
      "visit": 2053,
      "Ġtopic": 2054,
      "Ġdirector": 2055,
      "Ġimage": 2056,
      "ches": 2057,
      "Ġannoun": 2058,
      "Ġelse": 2059,
      "Ġproduction": 2060,
      "Ġswedish": 2061,
      "Ġobvious": 2062,
      "Ġestabl": 2063,
      "Ġauthors": 2064,
      "Ġmedia": 2065,
      "Ġcategory": 2066,
      "Ġsuccessful": 2067,
      "Ġbusiness": 2068,
      "Ġaccommodation": 2069,
      "Ġgeneral": 2070,
      "Ġsorry": 2071,
      "Ġcollaborative": 2072,
      "fully": 2073,
      "201": 2074,
      "Ġtitle": 2075,
      "Ġcharact": 2076,
      "Ġcitizens": 2077,
      "riculum": 2078,
      "Ġapril": 2079,
      "Ġavailable": 2080,
      "Ġwatched": 2081,
      "Ġconsidered": 2082,
      "Ġfebruary": 2083,
      "cif": 2084,
      "cinct": 2085,
      "ds": 2086,
      "don": 2087,
      "during": 2088,
      "disc": 2089,
      "ff": 2090,
      "ground": 2091,
      "hing": 2092,
      "hind": 2093,
      "ked": 2094,
      "lin": 2095,
      "less": 2096,
      "langu": 2097,
      "mor": 2098,
      "ored": 2099,
      "patrick": 2100,
      "rop": 2101,
      "ration": 2102,
      "ule": 2103,
      "wr": 2104,
      "watch": 2105,
      "Ġ8": 2106,
      "Ġver": 2107,
      "Ġtw": 2108,
      "Ġtuesday": 2109,
      "Ġsat": 2110,
      "Ġscre": 2111,
      "Ġsince": 2112,
      "oust": 2113,
      "ering": 2114,
      "Ġcool": 2115,
      "Ġcorn": 2116,
      "Ġpop": 2117,
      "Ġpatrick": 2118,
      "Ġmone": 2119,
      "Ġmatch": 2120,
      "Ġmarch": 2121,
      "Ġmix": 2122,
      "Ġdem": 2123,
      "Ġdsa": 2124,
      "ital": 2125,
      "Ġfie": 2126,
      "Ġfix": 2127,
      "Ġbor": 2128,
      "Ġbar": 2129,
      "Ġbud": 2130,
      "Ġboy": 2131,
      "Ġhours": 2132,
      "ism": 2133,
      "ision": 2134,
      "Ġlou": 2135,
      "Ġlic": 2136,
      "Ġlight": 2137,
      "Ġline": 2138,
      "espe": 2139,
      "Ġoc": 2140,
      "ara": 2141,
      "ars": 2142,
      "Ġanim": 2143,
      "Ġansw": 2144,
      "Ġinc": 2145,
      "Ġinf": 2146,
      "lection": 2147,
      "lebr": 2148,
      "Ġnomin": 2149,
      "Ġgone": 2150,
      "Ġgather": 2151,
      "ayton": 2152,
      "Ġrem": 2153,
      "Ġef": 2154,
      "ention": 2155,
      "second": 2156,
      "Ġforth": 2157,
      "chlear": 2158,
      "ster": 2159,
      "Ġposs": 2160,
      "Ġju": 2161,
      "rench": 2162,
      "Ġlimit": 2163,
      "ists": 2164,
      "bered": 2165,
      "Ġshapes": 2166,
      "Ġrid": 2167,
      "Ġwants": 2168,
      "Ġseeing": 2169,
      "Ġchance": 2170,
      "Ġconv": 2171,
      "Ġworksh": 2172,
      "amer": 2173,
      "Ġunited": 2174,
      "enda": 2175,
      "Ġexpression": 2176,
      "Ġgets": 2177,
      "Ġagen": 2178,
      "Ġagenda": 2179,
      "Ġaccept": 2180,
      "Ġacoust": 2181,
      "ribut": 2182,
      "aged": 2183,
      "Ġfeeling": 2184,
      "ogn": 2185,
      "cially": 2186,
      "Ġtele": 2187,
      "Ġstarting": 2188,
      "uman": 2189,
      "Ġperformances": 2190,
      "Ġhelped": 2191,
      "Ġprecinct": 2192,
      "something": 2193,
      "Ġsenior": 2194,
      "Ġdays": 2195,
      "Ġclasses": 2196,
      "Ġvideos": 2197,
      "Ġcost": 2198,
      "Ġcochlear": 2199,
      "Ġfinished": 2200,
      "Ġtaken": 2201,
      "Ġwondering": 2202,
      "Ġexplained": 2203,
      "Ġinfluenced": 2204,
      "Ġballoon": 2205,
      "everything": 2206,
      "Ġmentioned": 2207,
      "commun": 2208,
      "Ġfollowing": 2209,
      "Ġrecently": 2210,
      "Ġtype": 2211,
      "Ġaware": 2212,
      "Ġdirect": 2213,
      "Ġvision": 2214,
      "Ġchanges": 2215,
      "Ġemployment": 2216,
      "Ġturned": 2217,
      "Ġimag": 2218,
      "Ġallowed": 2219,
      "Ġhealthy": 2220,
      "Ġmonth": 2221,
      "perform": 2222,
      "Ġissue": 2223,
      "Ġissues": 2224,
      "Ġupdate": 2225,
      "Ġskills": 2226,
      "Ġtraining": 2227,
      "Ġmajor": 2228,
      "borhood": 2229,
      "Ġyoung": 2230,
      "Ġpositive": 2231,
      "Ġsecret": 2232,
      "Ġmexico": 2233,
      "Ġvariety": 2234,
      "Ġillness": 2235,
      "Ġmessage": 2236,
      "underst": 2237,
      "Ġnecessarily": 2238,
      "Ġweak": 2239,
      "Ġangry": 2240,
      "membered": 2241,
      "Ġneighborhood": 2242,
      "Ġview": 2243,
      "Ġcharacter": 2244,
      "language": 2245,
      "Ġmoney": 2246,
      "Ġfield": 2247,
      "Ġbudget": 2248,
      "especially": 2249,
      "book": 2250,
      "cu": 2251,
      "cent": 2252,
      "check": 2253,
      "depend": 2254,
      "hand": 2255,
      "hold": 2256,
      "iar": 2257,
      "ium": 2258,
      "know": 2259,
      "light": 2260,
      "log": 2261,
      "lcome": 2262,
      "make": 2263,
      "mother": 2264,
      "malls": 2265,
      "overed": 2266,
      "pose": 2267,
      "rican": 2268,
      "sur": 2269,
      "since": 2270,
      "saint": 2271,
      "try": 2272,
      "ubs": 2273,
      "vir": 2274,
      "Ġum": 2275,
      "Ġaids": 2276,
      "inst": 2277,
      "Ġwood": 2278,
      "Ġwife": 2279,
      "rem": 2280,
      "Ġsw": 2281,
      "Ġsug": 2282,
      "Ġsub": 2283,
      "Ġsleep": 2284,
      "ought": 2285,
      "ond": 2286,
      "ons": 2287,
      "only": 2288,
      "ingers": 2289,
      "Ġche": 2290,
      "Ġcas": 2291,
      "Ġcle": 2292,
      "Ġpat": 2293,
      "Ġpri": 2294,
      "Ġmid": 2295,
      "lla": 2296,
      "Ġdea": 2297,
      "Ġdet": 2298,
      "Ġdad": 2299,
      "Ġdfl": 2300,
      "Ġdhh": 2301,
      "Ġdorm": 2302,
      "ense": 2303,
      "Ġfant": 2304,
      "Ġfood": 2305,
      "Ġber": 2306,
      "Ġhuman": 2307,
      "Ġlate": 2308,
      "arm": 2309,
      "vember": 2310,
      "leman": 2311,
      "Ġgar": 2312,
      "Ġgent": 2313,
      "Ġgame": 2314,
      "Ġitself": 2315,
      "Ġhalf": 2316,
      "etition": 2317,
      "Ġref": 2318,
      "Ġremembered": 2319,
      "Ġeat": 2320,
      "Ġemer": 2321,
      "soda": 2322,
      "Ġstay": 2323,
      "Ġstaff": 2324,
      "Ġonline": 2325,
      "change": 2326,
      "Ġmeant": 2327,
      "Ġmemor": 2328,
      "Ġkid": 2329,
      "meaning": 2330,
      "ooh": 2331,
      "still": 2332,
      "stud": 2333,
      "start": 2334,
      "stream": 2335,
      "Ġjohn": 2336,
      "rove": 2337,
      "Ġlived": 2338,
      "Ġlives": 2339,
      "uled": 2340,
      "iment": 2341,
      "Ġgoals": 2342,
      "Ġensure": 2343,
      "abled": 2344,
      "Ġyet": 2345,
      "ferent": 2346,
      "Ġchallen": 2347,
      "Ġsomeone": 2348,
      "Ġworks": 2349,
      "Ġpoetic": 2350,
      "ansas": 2351,
      "mental": 2352,
      "things": 2353,
      "Ġdefin": 2354,
      "Ġperfect": 2355,
      "Ġothers": 2356,
      "ivity": 2357,
      "izations": 2358,
      "within": 2359,
      "Ġclosed": 2360,
      "Ġplayed": 2361,
      "oken": 2362,
      "Ġquality": 2363,
      "Ġdisabled": 2364,
      "Ġaccom": 2365,
      "Ġspace": 2366,
      "Ġfeature": 2367,
      "oussaint": 2368,
      "Ġshows": 2369,
      "Ġtext": 2370,
      "Ġgrand": 2371,
      "Ġfunny": 2372,
      "Ġhappy": 2373,
      "Ġbackground": 2374,
      "Ġperformed": 2375,
      "Ġprote": 2376,
      "Ġmail": 2377,
      "Ġmakes": 2378,
      "ressed": 2379,
      "Ġadded": 2380,
      "Ġinterested": 2381,
      "Ġdiscovered": 2382,
      "Ġcreative": 2383,
      "Ġbrain": 2384,
      "Ġartic": 2385,
      "Ġ199": 2386,
      "Ġfair": 2387,
      "Ġexperiences": 2388,
      "Ġtranslated": 2389,
      "Ġdevelopment": 2390,
      "ĠâĢĵ": 2391,
      "Ġspecif": 2392,
      "utely": 2393,
      "going": 2394,
      "Ġhopefully": 2395,
      "Ġcurious": 2396,
      "Ġcurriculum": 2397,
      "Ġtested": 2398,
      "Ġthanks": 2399,
      "Ġrepublic": 2400,
      "www": 2401,
      "Ġhold": 2402,
      "Ġmexican": 2403,
      "Ġdisabilities": 2404,
      "Ġcountry": 2405,
      "Ġbeginning": 2406,
      "Ġsweden": 2407,
      "Ġcenter": 2408,
      "Ġcentral": 2409,
      "phone": 2410,
      "Ġcelebr": 2411,
      "Ġprofessional": 2412,
      "reedom": 2413,
      "Ġpulled": 2414,
      "solutely": 2415,
      "fortable": 2416,
      "Ġdiscussions": 2417,
      "Ġmainstream": 2418,
      "Ġshock": 2419,
      "Ġhandshape": 2420,
      "Ġvideotape": 2421,
      "Ġemot": 2422,
      "Ġrhythm": 2423,
      "Ġfrustrated": 2424,
      "Ġalerts": 2425,
      "Ġconstruction": 2426,
      "Ġstruggle": 2427,
      "Ġemphasize": 2428,
      "Ġintrodu": 2429,
      "Ġfascinating": 2430,
      "Ġdominant": 2431,
      "Ġopportunity": 2432,
      "bbie": 2433,
      "different": 2434,
      "Ġcopy": 2435,
      "Ġkenny": 2436,
      "Ġversion": 2437,
      "Ġoccur": 2438,
      "Ġworkshop": 2439,
      "american": 2440,
      "instead": 2441,
      "Ġprior": 2442,
      "Ġgentleman": 2443,
      "!!": 2444,
      "!\"": 2445,
      "\",": 2446,
      "),": 2447,
      "70": 2448,
      "ah": 2449,
      "bt": 2450,
      "cle": 2451,
      "call": 2452,
      "cies": 2453,
      "dd": 2454,
      "ey": 2455,
      "friend": 2456,
      "hour": 2457,
      "hoc": 2458,
      "ians": 2459,
      "lot": 2460,
      "later": 2461,
      "lsm": 2462,
      "mar": 2463,
      "oke": 2464,
      "por": 2465,
      "ped": 2466,
      "pol": 2467,
      "posed": 2468,
      "pital": 2469,
      "ron": 2470,
      "ring": 2471,
      "rid": 2472,
      "sk": 2473,
      "sing": 2474,
      "set": 2475,
      "sup": 2476,
      "school": 2477,
      "umb": 2478,
      "vies": 2479,
      "went": 2480,
      "whether": 2481,
      "Ġed": 2482,
      "Ġtre": 2483,
      "Ġtour": 2484,
      "Ġtur": 2485,
      "Ġwow": 2486,
      "rect": 2487,
      "Ġsit": 2488,
      "Ġsent": 2489,
      "Ġsad": 2490,
      "Ġsist": 2491,
      "Ġsil": 2492,
      "Ġsong": 2493,
      "Ġtheme": 2494,
      "Ġimm": 2495,
      "ouple": 2496,
      "Ġthird": 2497,
      "orms": 2498,
      "Ġcoy": 2499,
      "Ġcave": 2500,
      "Ġcru": 2501,
      "Ġcoff": 2502,
      "Ġcouple": 2503,
      "Ġpan": 2504,
      "Ġpier": 2505,
      "Ġmorn": 2506,
      "Ġmalls": 2507,
      "Ġdou": 2508,
      "Ġdiv": 2509,
      "Ġdeter": 2510,
      "Ġdra": 2511,
      "andel": 2512,
      "iter": 2513,
      "itor": 2514,
      "itation": 2515,
      "asur": 2516,
      "Ġfast": 2517,
      "Ġbre": 2518,
      "Ġbir": 2519,
      "Ġburn": 2520,
      "Ġhit": 2521,
      "Ġhur": 2522,
      "Ġhol": 2523,
      "ising": 2524,
      "ised": 2525,
      "Ġland": 2526,
      "Ġles": 2527,
      "Ġluck": 2528,
      "Ġgard": 2529,
      "Ġgain": 2530,
      "uses": 2531,
      "Ġrepe": 2532,
      "Ġella": 2533,
      "Ġbehind": 2534,
      "Ġstu": 2535,
      "Ġstri": 2536,
      "Ġstore": 2537,
      "cts": 2538,
      "sexual": 2539,
      "Ġones": 2540,
      "chie": 2541,
      "Ġkansas": 2542,
      "mel": 2543,
      "ified": 2544,
      "unt": 2545,
      "unate": 2546,
      "Ġmovies": 2547,
      "Ġlim": 2548,
      "Ġliked": 2549,
      "ular": 2550,
      "Ġval": 2551,
      "Ġvlog": 2552,
      "being": 2553,
      "Ġshall": 2554,
      "Ġrun": 2555,
      "ilt": 2556,
      "tery": 2557,
      "terosexual": 2558,
      "abul": 2559,
      "rought": 2560,
      "Ġsomehow": 2561,
      "ember": 2562,
      "Ġworkers": 2563,
      "Ġsex": 2564,
      "Ġsepar": 2565,
      "mentary": 2566,
      "Ġdifferences": 2567,
      "Ġexper": 2568,
      "whatos": 2569,
      "ival": 2570,
      "izing": 2571,
      "ospital": 2572,
      "Ġagreed": 2573,
      "Ġacc": 2574,
      "Ġacross": 2575,
      "Ġamy": 2576,
      "Ġspread": 2577,
      "Ġspeech": 2578,
      "Ġspoken": 2579,
      "Ġleast": 2580,
      "aper": 2581,
      "agg": 2582,
      "ago": 2583,
      "agers": 2584,
      "Ġanyone": 2585,
      "Ġnovember": 2586,
      "ogr": 2587,
      "Ġgrown": 2588,
      "Ġstarts": 2589,
      "Ġcontro": 2590,
      "Ġcontribut": 2591,
      "next": 2592,
      "Ġ2019": 2593,
      "Ġlost": 2594,
      "Ġloved": 2595,
      "Ġloops": 2596,
      "lier": 2597,
      "somebody": 2598,
      "Ġincluding": 2599,
      "Ġboard": 2600,
      "chers": 2601,
      "ologically": 2602,
      "Ġservice": 2603,
      "Ġrole": 2604,
      "Ġface": 2605,
      "Ġinvited": 2606,
      "Ġoffic": 2607,
      "Ġoffice": 2608,
      "Ġcommittees": 2609,
      "Ġthroughout": 2610,
      "Ġmetaph": 2611,
      "ublican": 2612,
      "Ġtranslating": 2613,
      "berg": 2614,
      "ptember": 2615,
      "spouse": 2616,
      "Ġdecide": 2617,
      "Ġpresentation": 2618,
      "anyway": 2619,
      "Ġtends": 2620,
      "bye": 2621,
      "ella": 2622,
      "Ġsurpr": 2623,
      "Ġended": 2624,
      "Ġaccessible": 2625,
      "Ġgender": 2626,
      "Ġelements": 2627,
      "said": 2628,
      "isexual": 2629,
      "Ġmarried": 2630,
      "Ġfocused": 2631,
      "Ġrepublican": 2632,
      "Ġvisual": 2633,
      "Ġjoined": 2634,
      "Ġemployees": 2635,
      "Ġattend": 2636,
      "Ġvarious": 2637,
      "Ġbuilding": 2638,
      "Ġcrit": 2639,
      "Ġgiving": 2640,
      "switch": 2641,
      "Ġauthor": 2642,
      "Ġmoment": 2643,
      "Ġchairs": 2644,
      "Ġchairperson": 2645,
      "Ġprofessionals": 2646,
      "play": 2647,
      "Ġdepend": 2648,
      "Ġ1980": 2649,
      "Ġcaptiv": 2650,
      "including": 2651,
      "included": 2652,
      "Ġhandshapes": 2653,
      "Ġtypes": 2654,
      "Ġanalyze": 2655,
      "Ġslow": 2656,
      "Ġregister": 2657,
      "Ġmissed": 2658,
      "trans": 2659,
      "Ġencouraged": 2660,
      "duced": 2661,
      "nament": 2662,
      "Ġpractice": 2663,
      "Ġfamiliar": 2664,
      "Ġindividuals": 2665,
      "Ġtechniques": 2666,
      "continue": 2667,
      "Ġcurrently": 2668,
      "Ġestablished": 2669,
      "Ġscreen": 2670,
      "Ġanswer": 2671,
      "Ġagencies": 2672,
      "Ġtelephone": 2673,
      "ingerspe": 2674,
      "Ġcrumb": 2675,
      "Ġcoffee": 2676,
      "Ġmorning": 2677,
      "Ġdivision": 2678,
      "asurable": 2679,
      "Ġbirth": 2680,
      "Ġlesb": 2681,
      "Ġgarden": 2682,
      "25": 2683,
      "75": 2684,
      "ax": 2685,
      "ait": 2686,
      "aids": 2687,
      "cor": 2688,
      "col": 2689,
      "cri": 2690,
      "course": 2691,
      "dle": 2692,
      "dition": 2693,
      "ef": 2694,
      "eers": 2695,
      "emp": 2696,
      "equ": 2697,
      "ered": 2698,
      "fam": 2699,
      "follow": 2700,
      "fund": 2701,
      "ging": 2702,
      "ges": 2703,
      "great": 2704,
      "hard": 2705,
      "habil": 2706,
      "ma": 2707,
      "mission": 2708,
      "nard": 2709,
      "nets": 2710,
      "put": 2711,
      "ries": 2712,
      "sen": 2713,
      "same": 2714,
      "show": 2715,
      "ta": 2716,
      "td": 2717,
      "tom": 2718,
      "tea": 2719,
      "talk": 2720,
      "ume": 2721,
      "uge": 2722,
      "ugh": 2723,
      "valli": 2724,
      "walk": 2725,
      "wait": 2726,
      "yond": 2727,
      "Ġur": 2728,
      "Ġtin": 2729,
      "Ġtie": 2730,
      "Ġtoussaint": 2731,
      "Ġachie": 2732,
      "Ġwww": 2733,
      "reci": 2734,
      "ane": 2735,
      "anish": 2736,
      "Ġsou": 2737,
      "Ġsus": 2738,
      "Ġsal": 2739,
      "Ġsch": 2740,
      "Ġsick": 2741,
      "atives": 2742,
      "once": 2743,
      "orical": 2744,
      "Ġcake": 2745,
      "Ġcamp": 2746,
      "Ġciv": 2747,
      "Ġpas": 2748,
      "Ġpage": 2749,
      "Ġprom": 2750,
      "Ġprou": 2751,
      "Ġport": 2752,
      "Ġpubl": 2753,
      "Ġpadd": 2754,
      "Ġmil": 2755,
      "Ġmncdhh": 2756,
      "Ġmds": 2757,
      "Ġdh": 2758,
      "Ġdy": 2759,
      "itud": 2760,
      "itled": 2761,
      "ask": 2762,
      "enagers": 2763,
      "Ġtot": 2764,
      "Ġfur": 2765,
      "Ġfive": 2766,
      "Ġfore": 2767,
      "Ġban": 2768,
      "Ġbased": 2769,
      "Ġbrought": 2770,
      "Ġbisexual": 2771,
      "Ġhop": 2772,
      "Ġhang": 2773,
      "ison": 2774,
      "Ġlent": 2775,
      "Ġlower": 2776,
      "Ġlines": 2777,
      "esome": 2778,
      "ark": 2779,
      "Ġinform": 2780,
      "owing": 2781,
      "Ġwashing": 2782,
      "legisl": 2783,
      "Ġnon": 2784,
      "Ġnor": 2785,
      "Ġnative": 2786,
      "Ġgins": 2787,
      "usion": 2788,
      "third": 2789,
      "icago": 2790,
      "alm": 2791,
      "ales": 2792,
      "Ġweb": 2793,
      "Ġwelcome": 2794,
      "ioning": 2795,
      "ional": 2796,
      "Ġreport": 2797,
      "Ġrent": 2798,
      "Ġrehabil": 2799,
      "Ġeur": 2800,
      "Ġemb": 2801,
      "utes": 2802,
      "Ġisn": 2803,
      "Ġforce": 2804,
      "Ġforms": 2805,
      "Ġforget": 2806,
      "child": 2807,
      "Ġmemo": 2808,
      "Ġmeasurable": 2809,
      "Ġkim": 2810,
      "ille": 2811,
      "illed": 2812,
      "Ġaspect": 2813,
      "ston": 2814,
      "Ġaren": 2815,
      "Ġareas": 2816,
      "Ġwithout": 2817,
      "Ġknows": 2818,
      "Ġnear": 2819,
      "Ġexchange": 2820,
      "Ġdocu": 2821,
      "while": 2822,
      "Ġworry": 2823,
      "Ġnote": 2824,
      "Ġva": 2825,
      "Ġvol": 2826,
      "Ġvoc": 2827,
      "Ġshop": 2828,
      "arter": 2829,
      "iling": 2830,
      "ilities": 2831,
      "Ġending": 2832,
      "Ġenvir": 2833,
      "Ġorigin": 2834,
      "absolutely": 2835,
      "Ġsoci": 2836,
      "Ġchos": 2837,
      "Ġchicago": 2838,
      "Ġconne": 2839,
      "question": 2840,
      "estival": 2841,
      "ems": 2842,
      "Ġtrave": 2843,
      "Ġ11": 2844,
      "Ġ16": 2845,
      "Ġ18": 2846,
      "Ġseat": 2847,
      "Ġseeds": 2848,
      "Ġseptember": 2849,
      "Ġwrong": 2850,
      "Ġ27": 2851,
      "Ġoutside": 2852,
      "Ġoutlin": 2853,
      "Ġsays": 2854,
      "Ġdebbie": 2855,
      "Ġexpos": 2856,
      "ief": 2857,
      "istinctly": 2858,
      "Ġadhoc": 2859,
      "Ġlottery": 2860,
      "actually": 2861,
      "Ġrights": 2862,
      "Ġclubs": 2863,
      "Ġimpl": 2864,
      "Ġimprove": 2865,
      "astic": 2866,
      "Ġlecture": 2867,
      "Ġexamples": 2868,
      "Ġshowing": 2869,
      "cip": 2870,
      "Ġgrant": 2871,
      "ocr": 2872,
      "Ġbye": 2873,
      "Ġcontent": 2874,
      "Ġarts": 2875,
      "need": 2876,
      "Ġeveryday": 2877,
      "Ġprevious": 2878,
      "Ġacting": 2879,
      "Ġactive": 2880,
      "Ġpray": 2881,
      "Ġputting": 2882,
      "Ġ2016": 2883,
      "Ġsupposed": 2884,
      "Ġgotten": 2885,
      "Ġmae": 2886,
      "Ġstring": 2887,
      "erious": 2888,
      "education": 2889,
      "Ġfinding": 2890,
      "Ġcreating": 2891,
      "Ġminutes": 2892,
      "Ġcompar": 2893,
      "Ġeducate": 2894,
      "Ġeducated": 2895,
      "Ġcold": 2896,
      "Ġfinal": 2897,
      "Ġjobs": 2898,
      "wns": 2899,
      "Ġtakes": 2900,
      "Ġappro": 2901,
      "Ġfav": 2902,
      "Ġinvest": 2903,
      "move": 2904,
      "many": 2905,
      "Ġcaught": 2906,
      "Ġcaused": 2907,
      "Ġcultures": 2908,
      "Ġearlier": 2909,
      "everyone": 2910,
      "Ġprovided": 2911,
      "ossible": 2912,
      "anybody": 2913,
      "Ġphot": 2914,
      "Ġeasier": 2915,
      "ability": 2916,
      "Ġplaces": 2917,
      "Ġminnesotans": 2918,
      "Ġbelow": 2919,
      "Ġevents": 2920,
      "Ġwaiting": 2921,
      "Ġmatches": 2922,
      "Ġends": 2923,
      "Ġaccessibility": 2924,
      "Ġenjoyed": 2925,
      "Ġtechnical": 2926,
      "Ġsimilarly": 2927,
      "ibly": 2928,
      "Ġrecogn": 2929,
      "Ġplanned": 2930,
      "Ġdiscussed": 2931,
      "Ġopened": 2932,
      "Ġvoters": 2933,
      "Ġdriving": 2934,
      "Ġvisit": 2935,
      "Ġgovernment": 2936,
      "Ġwalking": 2937,
      "Ġcandidate": 2938,
      "throughout": 2939,
      "Ġsorts": 2940,
      "Ġannual": 2941,
      "Ġnames": 2942,
      "didn": 2943,
      "Ġblind": 2944,
      "Ġlocal": 2945,
      "Ġlocated": 2946,
      "Ġrequirements": 2947,
      "perhaps": 2948,
      "Ġentitled": 2949,
      "Ġlarger": 2950,
      "Ġstandards": 2951,
      "ique": 2952,
      "looking": 2953,
      "Ġcerem": 2954,
      "pared": 2955,
      "Ġcolor": 2956,
      "Ġcareful": 2957,
      "Ġcategories": 2958,
      "Ġpulls": 2959,
      "Ġequal": 2960,
      "Ġupdates": 2961,
      "Ġcaptioning": 2962,
      "Ġpictures": 2963,
      "ails": 2964,
      "Ġcorrect": 2965,
      "Ġstopped": 2966,
      "Ġraces": 2967,
      "Ġtypically": 2968,
      "Ġpurch": 2969,
      "Ġrhyme": 2970,
      "ependent": 2971,
      "Ġregistration": 2972,
      "Ġvector": 2973,
      "Ġcouncil": 2974,
      "Ġadvocates": 2975,
      "Ġscheduled": 2976,
      "Ġcoda": 2977,
      "Ġcellar": 2978,
      "Ġcertainly": 2979,
      "Ġmodels": 2980,
      "Ġconfused": 2981,
      "Ġpropos": 2982,
      "exp": 2983,
      "Ġpiece": 2984,
      "Ġhomosexual": 2985,
      "Ġbecomes": 2986,
      "Ġassociation": 2987,
      "Ġshared": 2988,
      "Ġshuttle": 2989,
      "Ġyellow": 2990,
      "Ġamerica": 2991,
      "Ġannounce": 2992,
      "Ġobviously": 2993,
      "discus": 2994,
      "Ġcorner": 2995,
      "Ġborrow": 2996,
      "Ġlicense": 2997,
      "Ġanimals": 2998,
      "Ġgathering": 2999,
      "Ġpossible": 3000,
      "communication": 3001,
      "understand": 3002,
      "depending": 3003,
      "Ġmiddle": 3004,
      "Ġdhhsd": 3005,
      "Ġprotect": 3006,
      "Ġrepublicans": 3007,
      "Ġshocked": 3008,
      "called": 3009,
      "Ġtournament": 3010,
      "Ġdraw": 3011,
      "andelion": 3012,
      "Ġbrea": 3013,
      "Ġexperiment": 3014,
      "employ": 3015,
      "Ġcivil": 3016,
      "Ġpaso": 3017,
      "Ġproud": 3018,
      "Ġlentz": 3019,
      "Ġwashington": 3020,
      "Ġginsberg": 3021,
      "Ġrehabilitation": 3022,
      "Ġeurope": 3023,
      "children": 3024,
      "Ġenviron": 3025,
      "Ġsociety": 3026,
      "Ġchosen": 3027,
      "Ġexposure": 3028,
      "\"--": 3029,
      "\"...": 3030,
      "11": 3031,
      "14": 3032,
      "15": 3033,
      "72": 3034,
      "80": 3035,
      "85": 3036,
      "aur": 3037,
      "aight": 3038,
      "bed": 3039,
      "big": 3040,
      "boy": 3041,
      "born": 3042,
      "based": 3043,
      "co": 3044,
      "could": 3045,
      "cod": 3046,
      "certain": 3047,
      "down": 3048,
      "ew": 3049,
      "either": 3050,
      "election": 3051,
      "father": 3052,
      "french": 3053,
      "freedom": 3054,
      "gt": 3055,
      "gest": 3056,
      "god": 3057,
      "good": 3058,
      "gress": 3059,
      "hf": 3060,
      "hi": 3061,
      "hom": 3062,
      "ik": 3063,
      "iver": 3064,
      "iate": 3065,
      "iam": 3066,
      "iod": 3067,
      "ials": 3068,
      "ju": 3069,
      "jim": 3070,
      "loc": 3071,
      "mil": 3072,
      "mine": 3073,
      "nn": 3074,
      "ners": 3075,
      "none": 3076,
      "national": 3077,
      "ob": 3078,
      "oe": 3079,
      "ores": 3080,
      "oca": 3081,
      "oint": 3082,
      "pea": 3083,
      "pos": 3084,
      "ract": 3085,
      "sis": 3086,
      "sus": 3087,
      "such": 3088,
      "tent": 3089,
      "uary": 3090,
      "vid": 3091,
      "vide": 3092,
      "voc": 3093,
      "wind": 3094,
      "west": 3095,
      "wide": 3096,
      "water": 3097,
      "xas": 3098,
      "xical": 3099,
      "yle": 3100,
      "Ġ/": 3101,
      "Ġz": 3102,
      "Ġut": 3103,
      "Ġespecially": 3104,
      "Ġtam": 3105,
      "Ġtied": 3106,
      "Ġtask": 3107,
      "Ġapart": 3108,
      "ina": 3109,
      "inner": 3110,
      "Ġwater": 3111,
      "ref": 3112,
      "reg": 3113,
      "reme": 3114,
      "anne": 3115,
      "Ġser": 3116,
      "Ġswe": 3117,
      "Ġsamp": 3118,
      "Ġsimp": 3119,
      "Ġther": 3120,
      "Ġirid": 3121,
      "atic": 3122,
      "athere": 3123,
      "onies": 3124,
      "onial": 3125,
      "erpt": 3126,
      "erint": 3127,
      "ord": 3128,
      "ork": 3129,
      "oral": 3130,
      "origin": 3131,
      "inger": 3132,
      "Ġcro": 3133,
      "Ġcry": 3134,
      "Ġcards": 3135,
      "Ġpm": 3136,
      "Ġpen": 3137,
      "Ġple": 3138,
      "Ġpus": 3139,
      "Ġpian": 3140,
      "Ġpalm": 3141,
      "Ġmc": 3142,
      "Ġmi": 3143,
      "Ġmic": 3144,
      "Ġmime": 3145,
      "Ġmass": 3146,
      "Ġmich": 3147,
      "Ġmine": 3148,
      "Ġded": 3149,
      "Ġdate": 3150,
      "Ġdie": 3151,
      "Ġdue": 3152,
      "Ġdance": 3153,
      "Ġdied": 3154,
      "Ġdeep": 3155,
      "Ġdorms": 3156,
      "asure": 3157,
      "ened": 3158,
      "Ġtool": 3159,
      "Ġfed": 3160,
      "Ġfif": 3161,
      "Ġfly": 3162,
      "Ġfalls": 3163,
      "Ġfrench": 3164,
      "Ġfought": 3165,
      "Ġfingerspe": 3166,
      "Ġfestival": 3167,
      "Ġbot": 3168,
      "Ġbase": 3169,
      "Ġbiling": 3170,
      "Ġhot": 3171,
      "Ġhmm": 3172,
      "Ġhospital": 3173,
      "Ġhuge": 3174,
      "Ġlif": 3175,
      "Ġlose": 3176,
      "Ġanger": 3177,
      "veto": 3178,
      "Ġnone": 3179,
      "than": 3180,
      "think": 3181,
      "Ġoffe": 3182,
      "Ġhaik": 3183,
      "ays": 3184,
      "oting": 3185,
      "otion": 3186,
      "Ġret": 3187,
      "Ġrepresentative": 3188,
      "Ġreview": 3189,
      "Ġresol": 3190,
      "Ġrenn": 3191,
      "Ġeight": 3192,
      "Ġeast": 3193,
      "igan": 3194,
      "Ġbeyond": 3195,
      "allel": 3196,
      "Ġheterosexual": 3197,
      "idden": 3198,
      "social": 3199,
      "Ġstem": 3200,
      "Ġstake": 3201,
      "Ġstuck": 3202,
      "ents": 3203,
      "chang": 3204,
      "opted": 3205,
      "Ġmec": 3206,
      "Ġmember": 3207,
      "Ġkne": 3208,
      "irit": 3209,
      "Ġjud": 3210,
      "Ġknowled": 3211,
      "Ġneat": 3212,
      "Ġexist": 3213,
      "Ġuses": 3214,
      "Ġusers": 3215,
      "lap": 3216,
      "Ġallen": 3217,
      "Ġlibr": 3218,
      "ately": 3219,
      "ulation": 3220,
      "upid": 3221,
      "bel": 3222,
      "Ġsharing": 3223,
      "ources": 3224,
      "udden": 3225,
      "Ġcomfortable": 3226,
      "Ġrit": 3227,
      "Ġrural": 3228,
      "Ġrule": 3229,
      "ils": 3230,
      "Ġens": 3231,
      "ables": 3232,
      "Ġyork": 3233,
      "ferences": 3234,
      "Ġchat": 3235,
      "Ġchap": 3236,
      "Ġconvers": 3237,
      "Ġconcer": 3238,
      "Ġdonna": 3239,
      "Ġprove": 3240,
      "Ġaslized": 3241,
      "ishing": 3242,
      "Ġcomment": 3243,
      "Ġ13": 3244,
      "Ġ15": 3245,
      "âĢ¢": 3246,
      "Ġselect": 3247,
      "Ġplant": 3248,
      "Ġ24": 3249,
      "Ġ25": 3250,
      "endment": 3251,
      "itely": 3252,
      "Ġexpens": 3253,
      "Ġlots": 3254,
      "Ġperhaps": 3255,
      "Ġperiod": 3256,
      "Ġclar": 3257,
      "Ġclayton": 3258,
      "Ġplays": 3259,
      "Ġquick": 3260,
      "arewell": 3261,
      "Ġamendment": 3262,
      "Ġspoke": 3263,
      "Ġspanish": 3264,
      "Ġimpossible": 3265,
      "Ġfell": 3266,
      "Ġleg": 3267,
      "aped": 3268,
      "riate": 3269,
      "riage": 3270,
      "rible": 3271,
      "Ġparts": 3272,
      "Ġnobody": 3273,
      "class": 3274,
      "clayton": 3275,
      "others": 3276,
      "Ġfeelings": 3277,
      "Ġteenagers": 3278,
      "Ġgrants": 3279,
      "umn": 3280,
      "deafblind": 3281,
      "deafened": 3282,
      "avel": 3283,
      "Ġground": 3284,
      "ctions": 3285,
      "Ġthoughts": 3286,
      "ney": 3287,
      "needs": 3288,
      "Ġ35": 3289,
      "Ġactor": 3290,
      "Ġactors": 3291,
      "Ġactivity": 3292,
      "Ġprot": 3293,
      "Ġprint": 3294,
      "fulness": 3295,
      "nobody": 3296,
      "Ġtransformation": 3297,
      "liber": 3298,
      "Ġmax": 3299,
      "Ġstru": 3300,
      "Ġstrange": 3301,
      "Ġstraight": 3302,
      "Ġincludes": 3303,
      "Ġboston": 3304,
      "itional": 3305,
      "Ġbright": 3306,
      "Ġbragg": 3307,
      "Ġbrief": 3308,
      "Ġcompetition": 3309,
      "Ġinterpreting": 3310,
      "Ġafra": 3311,
      "Ġafrican": 3312,
      "Ġbooks": 3313,
      "Ġclassroom": 3314,
      "Ġartist": 3315,
      "Ġarticul": 3316,
      "ipment": 3317,
      "Ġroad": 3318,
      "Ġrober": 3319,
      "Ġcoach": 3320,
      "learn": 3321,
      "Ġagainst": 3322,
      "Ġ40": 3323,
      "Ġappl": 3324,
      "Ġapplause": 3325,
      "Ġaudio": 3326,
      "Ġoffer": 3327,
      "Ġexcerpt": 3328,
      "moil": 3329,
      "should": 3330,
      "Ġinfluences": 3331,
      "Ġrequired": 3332,
      "dered": 3333,
      "Ġdeveloping": 3334,
      "Ġpresented": 3335,
      "Ġpolice": 3336,
      "Ġtelling": 3337,
      "Ġguide": 3338,
      "azz": 3339,
      "Ġplaced": 3340,
      "Ġtestified": 3341,
      "Ġfront": 3342,
      "Ġfriday": 3343,
      "Ġgenet": 3344,
      "Ġregards": 3345,
      "Ġregular": 3346,
      "Ġassign": 3347,
      "Ġcontinued": 3348,
      "Ġsymp": 3349,
      "Ġsynt": 3350,
      "Ġindian": 3351,
      "Ġindistinctly": 3352,
      "Ġkeeps": 3353,
      "Ġsetting": 3354,
      "Ġdiscussing": 3355,
      "vision": 3356,
      "Ġtopics": 3357,
      "âĢĿ.": 3358,
      "Ġawesome": 3359,
      "Ġintim": 3360,
      "Ġawards": 3361,
      "Ġsounds": 3362,
      "Ġparad": 3363,
      "Ġparam": 3364,
      "Ġparallel": 3365,
      "Ġincreased": 3366,
      "chester": 3367,
      "Ġflower": 3368,
      "ferred": 3369,
      "Ġlisten": 3370,
      "Ġlocation": 3371,
      "Ġanalysis": 3372,
      "Ġinstit": 3373,
      "Ġbegins": 3374,
      "Ġattention": 3375,
      "Ġattitud": 3376,
      "Ġacademic": 3377,
      "Ġbringing": 3378,
      "Ġfolk": 3379,
      "Ġfully": 3380,
      "Ġexpressing": 3381,
      "Ġfundra": 3382,
      "Ġlaws": 3383,
      "gency": 3384,
      "kenny": 3385,
      "Ġcarol": 3386,
      "Ġmedium": 3387,
      "Ġdistric": 3388,
      "Ġinternational": 3389,
      "parents": 3390,
      "Ġwomens": 3391,
      "Ġcolors": 3392,
      "Ġhouses": 3393,
      "Ġequipment": 3394,
      "Ġcollected": 3395,
      "important": 3396,
      "Ġbusy": 3397,
      "Ġraised": 3398,
      "Ġaccommodations": 3399,
      "Ġassistant": 3400,
      "Ġanalyzing": 3401,
      "Ġlinks": 3402,
      "Ġrestaur": 3403,
      "Ġconsum": 3404,
      "Ġparticipation": 3405,
      "Ġparticipate": 3406,
      "Ġresulted": 3407,
      "access": 3408,
      "prof": 3409,
      "Ġwindow": 3410,
      "Ġcounsel": 3411,
      "Ġpresident": 3412,
      "Ġdescri": 3413,
      "Ġbasically": 3414,
      "Ġalert": 3415,
      "Ġstruggl": 3416,
      "Ġencourage": 3417,
      "Ġfascinated": 3418,
      "Ġlinguistic": 3419,
      "Ġlinguistics": 3420,
      "Ġschedule": 3421,
      "Ġcode": 3422,
      "Ġdeadline": 3423,
      "Ġmodel": 3424,
      "Ġconfusing": 3425,
      "Ġresponse": 3426,
      "Ġfamilies": 3427,
      "Ġtechnique": 3428,
      "Ġhosting": 3429,
      "Ġpieces": 3430,
      "Ġbrother": 3431,
      "Ġinspir": 3432,
      "Ġbecoming": 3433,
      "Ġjanuary": 3434,
      "Ġextreme": 3435,
      "Ġamericans": 3436,
      "2018": 3437,
      "ropriate": 3438,
      "written": 3439,
      "Ġdemocr": 3440,
      "Ġlights": 3441,
      "Ġincred": 3442,
      "Ġeffect": 3443,
      "Ġjuly": 3444,
      "Ġacoustical": 3445,
      "Ġimagin": 3446,
      "Ġsecretary": 3447,
      "holders": 3448,
      "trying": 3449,
      "Ġwoods": 3450,
      "Ġdeal": 3451,
      "Ġfantastic": 3452,
      "Ġgarnets": 3453,
      "Ġreflect": 3454,
      "Ġemergency": 3455,
      "started": 3456,
      "Ġaccompl": 3457,
      "Ġgrandmother": 3458,
      "Ġarticle": 3459,
      "Ġspecific": 3460,
      "Ġemotions": 3461,
      "Ġintroduction": 3462,
      "lots": 3463,
      "suppose": 3464,
      "Ġturmoil": 3465,
      "Ġsitu": 3466,
      "Ġsister": 3467,
      "Ġpanara": 3468,
      "Ġdoubt": 3469,
      "Ġdetermine": 3470,
      "Ġburns": 3471,
      "Ġhurt": 3472,
      "Ġholiday": 3473,
      "Ġrepeat": 3474,
      "Ġstuff": 3475,
      "Ġlimited": 3476,
      "abulary": 3477,
      "Ġmetaphor": 3478,
      "Ġcritic": 3479,
      "Ġauthority": 3480,
      "Ġcaptivated": 3481,
      "Ġcrumbles": 3482,
      "Ġlesbian": 3483,
      "funded": 3484,
      "teachers": 3485,
      "talking": 3486,
      "Ġtiny": 3487,
      "Ġachieve": 3488,
      "Ġsuspect": 3489,
      "Ġsalad": 3490,
      "Ġpromote": 3491,
      "Ġdhoh": 3492,
      "Ġkimmel": 3493,
      "Ġaspects": 3494,
      "Ġdocumentary": 3495,
      "Ġseattle": 3496,
      "Ġimplants": 3497,
      "Ġcomparison": 3498,
      "Ġceremonies": 3499,
      "Ġpurchase": 3500,
      "employment": 3501,
      "susan": 3502,
      "tentimes": 3503,
      "athered": 3504,
      "erintend": 3505,
      "Ġpiano": 3506,
      "Ġmichigan": 3507,
      "Ġbilingual": 3508,
      "Ġoffered": 3509,
      "Ġrennie": 3510,
      "Ġstakeholders": 3511,
      "Ġknees": 3512,
      "Ġquickly": 3513,
      "Ġafraid": 3514,
      "Ġsyntax": 3515,
      "Ġdistricts": 3516,
      "Ġrestaurant": 3517,
      "Ġdemocrats": 3518,
      "!--": 3519,
      "\".": 3520,
      "\"?": 3521,
      "%,": 3522,
      ".âĢĿ": 3523,
      "//": 3524,
      "19": 3525,
      "100": 3526,
      "28": 3527,
      "77": 3528,
      "86": 3529,
      "://": 3530,
      "ared": 3531,
      "ached": 3532,
      "acy": 3533,
      "band": 3534,
      "bar": 3535,
      "bird": 3536,
      "cut": 3537,
      "cla": 3538,
      "cult": 3539,
      "cings": 3540,
      "count": 3541,
      "di": 3542,
      "dr": 3543,
      "dog": 3544,
      "fa": 3545,
      "fr": 3546,
      "fly": 3547,
      "fine": 3548,
      "fety": 3549,
      "gn": 3550,
      "gage": 3551,
      "gative": 3552,
      "gather": 3553,
      "gesture": 3554,
      "giate": 3555,
      "ham": 3556,
      "happ": 3557,
      "ially": 3558,
      "iatr": 3559,
      "kind": 3560,
      "kward": 3561,
      "len": 3562,
      "lore": 3563,
      "life": 3564,
      "licate": 3565,
      "ming": 3566,
      "met": 3567,
      "mir": 3568,
      "mind": 3569,
      "must": 3570,
      "mitt": 3571,
      "mous": 3572,
      "mates": 3573,
      "mount": 3574,
      "nter": 3575,
      "ole": 3576,
      "ober": 3577,
      "pan": 3578,
      "pare": 3579,
      "poll": 3580,
      "perspect": 3581,
      "rd": 3582,
      "rs": 3583,
      "rich": 3584,
      "rather": 3585,
      "rict": 3586,
      "rhy": 3587,
      "rimin": 3588,
      "sor": 3589,
      "sad": 3590,
      "spe": 3591,
      "sum": 3592,
      "sibility": 3593,
      "tp": 3594,
      "tu": 3595,
      "too": 3596,
      "ters": 3597,
      "took": 3598,
      "tend": 3599,
      "take": 3600,
      "teach": 3601,
      "tunate": 3602,
      "uh": 3603,
      "uz": 3604,
      "uly": 3605,
      "vo": 3606,
      "vic": 3607,
      "vive": 3608,
      "vior": 3609,
      "whe": 3610,
      "ye": 3611,
      "ys": 3612,
      "Ġes": 3613,
      "Ġet": 3614,
      "Ġten": 3615,
      "Ġtear": 3616,
      "Ġtable": 3617,
      "Ġtough": 3618,
      "hey": 3619,
      "help": 3620,
      "Ġath": 3621,
      "inv": 3622,
      "inter": 3623,
      "information": 3624,
      "incre": 3625,
      "influ": 3626,
      "incip": 3627,
      "Ġwar": 3628,
      "Ġward": 3629,
      "Ġwild": 3630,
      "Ġwarm": 3631,
      "rec": 3632,
      "requ": 3633,
      "anse": 3634,
      "anies": 3635,
      "Ġsf": 3636,
      "Ġsea": 3637,
      "Ġsla": 3638,
      "Ġsem": 3639,
      "Ġsca": 3640,
      "Ġsite": 3641,
      "Ġserious": 3642,
      "Ġsudden": 3643,
      "atural": 3644,
      "athy": 3645,
      "ona": 3646,
      "onding": 3647,
      "ert": 3648,
      "ery": 3649,
      "Ġthr": 3650,
      "organ": 3651,
      "Ġcut": 3652,
      "Ġcour": 3653,
      "Ġcatch": 3654,
      "Ġcory": 3655,
      "Ġcities": 3656,
      "Ġcute": 3657,
      "Ġpion": 3658,
      "Ġpot": 3659,
      "Ġpun": 3660,
      "Ġpack": 3661,
      "Ġpower": 3662,
      "Ġpaper": 3663,
      "Ġpeers": 3664,
      "Ġpuz": 3665,
      "Ġmas": 3666,
      "Ġmater": 3667,
      "Ġmps": 3668,
      "Ġmotion": 3669,
      "Ġmsad": 3670,
      "lled": 3671,
      "Ġdistinct": 3672,
      "Ġdates": 3673,
      "Ġdial": 3674,
      "Ġdiversity": 3675,
      "Ġdying": 3676,
      "Ġdumb": 3677,
      "Ġdark": 3678,
      "Ġdandelion": 3679,
      "itol": 3680,
      "ash": 3681,
      "ency": 3682,
      "Ġtom": 3683,
      "Ġfle": 3684,
      "Ġfear": 3685,
      "Ġfem": 3686,
      "Ġfoun": 3687,
      "Ġfont": 3688,
      "Ġfreedom": 3689,
      "Ġfrequ": 3690,
      "Ġbal": 3691,
      "Ġbay": 3692,
      "Ġbare": 3693,
      "Ġbank": 3694,
      "Ġhiv": 3695,
      "Ġhote": 3696,
      "Ġhire": 3697,
      "Ġharm": 3698,
      "isn": 3699,
      "issa": 3700,
      "Ġler": 3701,
      "Ġladd": 3702,
      "Ġlane": 3703,
      "Ġoct": 3704,
      "Ġange": 3705,
      "Ġanony": 3706,
      "Ġincl": 3707,
      "Ġinner": 3708,
      "owa": 3709,
      "Ġwasted": 3710,
      "ley": 3711,
      "Ġyoutu": 3712,
      "Ġnet": 3713,
      "Ġnation": 3714,
      "Ġnod": 3715,
      "Ġnorm": 3716,
      "Ġntd": 3717,
      "Ġnavel": 3718,
      "Ġnatural": 3719,
      "Ġgoo": 3720,
      "uset": 3721,
      "usually": 3722,
      "thod": 3723,
      "though": 3724,
      "Ġoftentimes": 3725,
      "Ġitems": 3726,
      "eared": 3727,
      "eable": 3728,
      "Ġhall": 3729,
      "Ġhair": 3730,
      "Ġhamm": 3731,
      "ala": 3732,
      "alp": 3733,
      "always": 3734,
      "Ġweight": 3735,
      "Ġweeds": 3736,
      "ayed": 3737,
      "eta": 3738,
      "etmil": 3739,
      "otes": 3740,
      "otlight": 3741,
      "Ġreact": 3742,
      "Ġrelated": 3743,
      "Ġremove": 3744,
      "Ġeee": 3745,
      "Ġeating": 3746,
      "Ġeye": 3747,
      "igm": 3748,
      "igr": 3749,
      "uted": 3750,
      "ution": 3751,
      "Ġbeat": 3752,
      "Ġbegan": 3753,
      "Ġbeha": 3754,
      "Ġhea": 3755,
      "iding": 3756,
      "idated": 3757,
      "Ġstok": 3758,
      "Ġstupid": 3759,
      "ctors": 3760,
      "Ġforced": 3761,
      "Ġfortunate": 3762,
      "verb": 3763,
      "Ġmel": 3764,
      "Ġmethod": 3765,
      "Ġkey": 3766,
      "Ġkathy": 3767,
      "Ġwhom": 3768,
      "Ġaside": 3769,
      "stories": 3770,
      "outing": 3771,
      "ific": 3772,
      "ifts": 3773,
      "keley": 3774,
      "antage": 3775,
      "irm": 3776,
      "http": 3777,
      "ceed": 3778,
      "cember": 3779,
      "Ġsigner": 3780,
      "ada": 3781,
      "lyn": 3782,
      "Ġjew": 3783,
      "Ġjazz": 3784,
      "ford": 3785,
      "Ġmoving": 3786,
      "ersion": 3787,
      "Ġknowing": 3788,
      "Ġneck": 3789,
      "Ġnegative": 3790,
      "Ġdoll": 3791,
      "Ġdoctor": 3792,
      "Ġdoctors": 3793,
      "today": 3794,
      "Ġaback": 3795,
      "Ġusually": 3796,
      "mpt": 3797,
      "lace": 3798,
      "laud": 3799,
      "labor": 3800,
      "Ġliver": 3801,
      "whatever": 3802,
      "...\"": 3803,
      "Ġworried": 3804,
      "istics": 3805,
      "Ġwilling": 3806,
      "Ġwilliam": 3807,
      "became": 3808,
      "Ġshine": 3809,
      "early": 3810,
      "Ġrage": 3811,
      "Ġrain": 3812,
      "Ġrather": 3813,
      "imed": 3814,
      "imony": 3815,
      "Ġgod": 3816,
      "terfly": 3817,
      "Ġengage": 3818,
      "urs": 3819,
      "abc": 3820,
      "Ġsol": 3821,
      "Ġalone": 3822,
      "Ġalthough": 3823,
      "fere": 3824,
      "Ġchines": 3825,
      "Ġchanne": 3826,
      "Ġconcept": 3827,
      "Ġcondition": 3828,
      "ement": 3829,
      "Ġuplo": 3830,
      "Ġworker": 3831,
      "olve": 3832,
      "olars": 3833,
      "ames": 3834,
      "Ġtrad": 3835,
      "Ġtrim": 3836,
      "Ġtrip": 3837,
      "Ġtruly": 3838,
      "itts": 3839,
      "Ġhearings": 3840,
      "Ġ100": 3841,
      "Ġwriter": 3842,
      "Ġtheirs": 3843,
      "Ġyourself": 3844,
      "Ġyourselves": 3845,
      "Ġuncom": 3846,
      "Ġunique": 3847,
      "Ġ29": 3848,
      "gland": 3849,
      "often": 3850,
      "Ġwhenever": 3851,
      "Ġdecember": 3852,
      "Ġexpand": 3853,
      "Ġadwas": 3854,
      "Ġadvis": 3855,
      "Ġadept": 3856,
      "ampoo": 3857,
      "Ġhowever": 3858,
      "redit": 3859,
      "Ġpermitt": 3860,
      "izes": 3861,
      "Ġsafety": 3862,
      "osium": 3863,
      "Ġclos": 3864,
      "Ġclue": 3865,
      "Ġclick": 3866,
      "Ġclub": 3867,
      "Ġsheet": 3868,
      "Ġpersonality": 3869,
      "Ġquilt": 3870,
      "Ġages": 3871,
      "arez": 3872,
      "Ġdisse": 3873,
      "Ġdisapp": 3874,
      "Ġamong": 3875,
      "Ġamount": 3876,
      "Ġspr": 3877,
      "Ġspring": 3878,
      "Ġspirit": 3879,
      "Ġspotlight": 3880,
      "Ġimpressed": 3881,
      "Ġfeed": 3882,
      "Ġlexical": 3883,
      "aping": 3884,
      "riers": 3885,
      "Ġmeanings": 3886,
      "Ġanybody": 3887,
      "tell": 3888,
      "Ġfeels": 3889,
      "Ġundergo": 3890,
      "Ġinteract": 3891,
      "ogue": 3892,
      "Ġtemp": 3893,
      "Ġtexas": 3894,
      "Ġfunction": 3895,
      "Ġ200": 3896,
      "Ġhelps": 3897,
      "Ġhelping": 3898,
      "Ġstatement": 3899,
      "Ġcommunities": 3900,
      "Ġ33": 3901,
      "Ġprepared": 3902,
      "Ġprepare": 3903,
      "Ġoverlap": 3904,
      "Ġprincip": 3905,
      "Ġgreen": 3906,
      "Ġ2013": 3907,
      "Ġ2014": 3908,
      "comes": 3909,
      "Ġsuperintend": 3910,
      "icals": 3911,
      "Ġtranssexual": 3912,
      "Ġloop": 3913,
      "whereas": 3914,
      "Ġpaul": 3915,
      "Ġmale": 3916,
      "Ġmach": 3917,
      "Ġmaad": 3918,
      "someone": 3919,
      "Ġstrateg": 3920,
      "ressing": 3921,
      "eria": 3922,
      "Ġkinds": 3923,
      "Ġbob": 3924,
      "Ġbox": 3925,
      "Ġlegislation": 3926,
      "Ġdiscover": 3927,
      "Ġdiscrimin": 3928,
      "Ġminor": 3929,
      "ologists": 3930,
      "itions": 3931,
      "Ġcomplain": 3932,
      "Ġcompany": 3933,
      "Ġcompared": 3934,
      "Ġcompanies": 3935,
      "Ġsupporting": 3936,
      "Ġsupportive": 3937,
      "Ġafric": 3938,
      "ationship": 3939,
      "grow": 3940,
      "grated": 3941,
      "letic": 3942,
      "Ġresources": 3943,
      "Ġrock": 3944,
      "Ġroster": 3945,
      "Ġrochester": 3946,
      "Ġcovered": 3947,
      "Ġappreci": 3948,
      "Ġappropriate": 3949,
      "Ġapplaud": 3950,
      "Ġfaces": 3951,
      "Ġfacing": 3952,
      "Ġexperienced": 3953,
      "Ġweekend": 3954,
      "moke": 3955,
      "Ġresear": 3956,
      "does": 3957,
      "ruction": 3958,
      "Ġhimself": 3959,
      "berry": 3960,
      "nesday": 3961,
      "ption": 3962,
      "Ġearn": 3963,
      "Ġears": 3964,
      "Ġ...,": 3965,
      "Ġcollection": 3966,
      "Ġcollegiate": 3967,
      "Ġballin": 3968,
      "african": 3969,
      "speech": 3970,
      "helle": 3971,
      "develop": 3972,
      "ensed": 3973,
      "Ġgrows": 3974,
      "Ġfounded": 3975,
      "Ġprovides": 3976,
      "Ġspeed": 3977,
      "Ġphil": 3978,
      "Ġphys": 3979,
      "Ġeasily": 3980,
      "azy": 3981,
      "goal": 3982,
      "lesb": 3983,
      "Ġseconds": 3984,
      "Ġfewer": 3985,
      "Ġafterwards": 3986,
      "Ġlaid": 3987,
      "Ġlaugh": 3988,
      "Ġopens": 3989,
      "Ġcontacted": 3990,
      "partner": 3991,
      "raits": 3992,
      "Ġwaving": 3993,
      "Ġmatched": 3994,
      "Ġmentor": 3995,
      "getting": 3996,
      "Ġtestimony": 3997,
      "Ġsmith": 3998,
      "Ġsmart": 3999,
      "iction": 4000,
      "Ġregions": 4001,
      "Ġfollows": 4002,
      "Ġfollowed": 4003,
      "Ġbuy": 4004,
      "Ġindependent": 4005,
      "Ġmovements": 4006,
      "jective": 4007,
      "Ġelect": 4008,
      "ginia": 4009,
      "Ġrecord": 4010,
      "Ġreasons": 4011,
      "Ġplanning": 4012,
      "working": 4013,
      "Ġskip": 4014,
      "Ġchecked": 4015,
      "Ġwebsites": 4016,
      "Ġvoted": 4017,
      "Ġprofit": 4018,
      "âĢĿ)": 4019,
      "Ġterm": 4020,
      "Ġawkward": 4021,
      "Ġmarriage": 4022,
      "Ġdrink": 4023,
      "Ġdirections": 4024,
      "Ġintr": 4025,
      "Ġjoining": 4026,
      "Ġemployee": 4027,
      "dhhsd": 4028,
      "kespea": 4029,
      "Ġturns": 4030,
      "Ġwalked": 4031,
      "Ġcapitol": 4032,
      "Ġheads": 4033,
      "Ġinterpretation": 4034,
      "iversary": 4035,
      "signs": 4036,
      "Ġflu": 4037,
      "Ġoppos": 4038,
      "Ġanniversary": 4039,
      "Ġreceived": 4040,
      "Ġproblems": 4041,
      "Ġstudying": 4042,
      "Ġ90": 4043,
      "Ġsucceed": 4044,
      "ertainment": 4045,
      "Ġcountries": 4046,
      "aslized": 4047,
      "Ġhistorical": 4048,
      "Ġlisted": 4049,
      "Ġlocations": 4050,
      "Ġinstance": 4051,
      "Ġinstruction": 4052,
      "Ġvoiceover": 4053,
      "Ġproduct": 4054,
      "Ġproducts": 4055,
      "Ġadvoca": 4056,
      "Ġrequirement": 4057,
      "Ġbuildings": 4058,
      "minnesot": 4059,
      "system": 4060,
      "Ġentertainment": 4061,
      "Ġobtain": 4062,
      "Ġstands": 4063,
      "Ġposted": 4064,
      "Ġguesses": 4065,
      "looked": 4066,
      "Ġestim": 4067,
      "Ġdistrict": 4068,
      "Ġinternal": 4069,
      "Ġinternally": 4070,
      "Ġgraduate": 4071,
      "Ġdifficulty": 4072,
      "having": 4073,
      "pawns": 4074,
      "plus": 4075,
      "parnter": 4076,
      "Ġcolumn": 4077,
      "Ġdavis": 4078,
      "Ġdavid": 4079,
      "fortunate": 4080,
      "Ġoralism": 4081,
      "Ġcollecting": 4082,
      "Ġskilled": 4083,
      "Ġfocusing": 4084,
      "ailed": 4085,
      "Ġuh": 4086,
      "Ġcorpor": 4087,
      "Ġpicked": 4088,
      "Ġperspective": 4089,
      "Ġmaintain": 4090,
      "Ġprojects": 4091,
      "aphic": 4092,
      "Ġvideotaping": 4093,
      "Ġgenerally": 4094,
      "Ġrestroom": 4095,
      "Ġemail": 4096,
      "Ġarrive": 4097,
      "Ġarrived": 4098,
      "Ġarrayed": 4099,
      "Ġmissing": 4100,
      "achuset": 4101,
      "iadeaf": 4102,
      "Ġveget": 4103,
      "Ġscalp": 4104,
      "Ġsunday": 4105,
      "Ġsouthwest": 4106,
      "Ġyounger": 4107,
      "Ġgestures": 4108,
      "Ġrelationship": 4109,
      "Ġrepresenting": 4110,
      "Ġrepresented": 4111,
      "Ġsteps": 4112,
      "Ġconstruct": 4113,
      "Ġemphasis": 4114,
      "Ġmexicans": 4115,
      "Ġadvocate": 4116,
      "ducing": 4117,
      "Ġpsychological": 4118,
      "Ġpsychiatr": 4119,
      "Ġpractices": 4120,
      "Ġrespond": 4121,
      "Ġresponsibility": 4122,
      "Ġhosted": 4123,
      "Ġopportunities": 4124,
      "Ġleadership": 4125,
      "Ġdancing": 4126,
      "Ġhonor": 4127,
      "Ġhonest": 4128,
      "Ġhonored": 4129,
      "Ġhomes": 4130,
      "Ġinspired": 4131,
      "Ġforgotten": 4132,
      "Ġjanitor": 4133,
      "Ġexpected": 4134,
      "Ġshakespea": 4135,
      "Ġinterviews": 4136,
      "Ġinterviewer": 4137,
      "Ġ1963": 4138,
      "Ġ1965": 4139,
      "Ġannounced": 4140,
      "Ġestablish": 4141,
      "write": 4142,
      "Ġtwins": 4143,
      "Ġpopulation": 4144,
      "Ġnominations": 4145,
      "Ġremain": 4146,
      "Ġlimitations": 4147,
      "Ġconvince": 4148,
      "Ġacoustics": 4149,
      "Ġimagine": 4150,
      "Ġmonths": 4151,
      "understood": 4152,
      "survey": 4153,
      "Ġswitch": 4154,
      "Ġsugar": 4155,
      "Ġsuggest": 4156,
      "Ġcash": 4157,
      "Ġpatient": 4158,
      "Ġdealing": 4159,
      "Ġbernard": 4160,
      "Ġberkeley": 4161,
      "Ġmemorize": 4162,
      "Ġmemorizing": 4163,
      "Ġdefinitely": 4164,
      "Ġfeatures": 4165,
      "Ġtextbook": 4166,
      "Ġbackgrounds": 4167,
      "Ġbrainwas": 4168,
      "Ġarticles": 4169,
      "Ġfairly": 4170,
      "Ġspecifically": 4171,
      "Ġintroduce": 4172,
      "Ġpriorities": 4173,
      "ronic": 4174,
      "Ġtreated": 4175,
      "Ġsilent": 4176,
      "Ġimmersion": 4177,
      "Ġlucky": 4178,
      "Ġstrikes": 4179,
      "Ġcontribute": 4180,
      "Ġofficers": 4181,
      "Ġsurprise": 4182,
      "switching": 4183,
      "Ġdepends": 4184,
      "colonial": 4185,
      "equal": 4186,
      "family": 4187,
      "Ġsoul": 4188,
      "Ġscholars": 4189,
      "Ġportraits": 4190,
      "Ġpublish": 4191,
      "Ġpaddy": 4192,
      "Ġdynam": 4193,
      "Ġtotal": 4194,
      "Ġforever": 4195,
      "Ġbisexuals": 4196,
      "legislators": 4197,
      "Ġnorth": 4198,
      "Ġvocabulary": 4199,
      "Ġoutlining": 4200,
      "Ġprayer": 4201,
      "Ġfavor": 4202,
      "Ġproposals": 4203,
      "Ġhomosexuality": 4204,
      "coda": 4205,
      "certainly": 4206,
      "homosexual": 4207,
      "positive": 4208,
      "Ġutilities": 4209,
      "regard": 4210,
      "Ġsweetmil": 4211,
      "Ġsimple": 4212,
      "Ġcroat": 4213,
      "Ġmassachuset": 4214,
      "Ġdedicate": 4215,
      "Ġfingerspelling": 4216,
      "Ġbottom": 4217,
      "changes": 4218,
      "Ġknowledge": 4219,
      "Ġlibrary": 4220,
      "Ġexpensive": 4221,
      "Ġprotest": 4222,
      "Ġprinted": 4223,
      "Ġstructure": 4224,
      "Ġrobert": 4225,
      "Ġapplication": 4226,
      "Ġsymposium": 4227,
      "Ġlistening": 4228,
      "Ġinstitute": 4229,
      "Ġattitude": 4230,
      "Ġfolklore": 4231,
      "Ġfundraising": 4232,
      "Ġstruggled": 4233,
      "Ġextremely": 4234,
      "Ġaccomplished": 4235,
      "Ġcriticized": 4236,
      "gathering": 4237,
      "gestures": 4238,
      "happy": 4239,
      "perspectives": 4240,
      "richard": 4241,
      "sorry": 4242,
      "Ġetc": 4243,
      "Ġathletic": 4244,
      "increased": 4245,
      "Ġslavic": 4246,
      "Ġcourt": 4247,
      "Ġpuzz": 4248,
      "Ġmaterials": 4249,
      "Ġdialogue": 4250,
      "Ġfrequently": 4251,
      "Ġbalance": 4252,
      "Ġhotel": 4253,
      "Ġharmfulness": 4254,
      "Ġoctober": 4255,
      "Ġanonymous": 4256,
      "Ġyoutube": 4257,
      "Ġbehavior": 4258,
      "Ġstokoe": 4259,
      "Ġchinese": 4260,
      "Ġchannel": 4261,
      "Ġupload": 4262,
      "Ġuncomfortable": 4263,
      "Ġpermitted": 4264,
      "Ġprincipal": 4265,
      "Ġsuperintendent": 4266,
      "Ġstrategy": 4267,
      "Ġadvocacy": 4268,
      "Ġcorporation": 4269,
      "Ġpsychiatric": 4270,
      "Ġshakespeare": 4271,
      "Ġsweetmilk": 4272,
      "Ġmassachusetts": 4273,
      ".'": 4274,
      "10": 4275,
      "18": 4276,
      "22": 4277,
      "200": 4278,
      "30": 4279,
      "35": 4280,
      "40": 4281,
      "41": 4282,
      "49": 4283,
      "50": 4284,
      "60": 4285,
      "73": 4286,
      "84": 4287,
      "87": 4288,
      ";&": 4289,
      "].": 4290,
      "aren": 4291,
      "audi": 4292,
      "ache": 4293,
      "awards": 4294,
      "bit": 4295,
      "bill": 4296,
      "bwe": 4297,
      "bee": 4298,
      "bur": 4299,
      "bara": 4300,
      "cat": 4301,
      "cas": 4302,
      "cot": 4303,
      "cide": 4304,
      "cast": 4305,
      "case": 4306,
      "clear": 4307,
      "candid": 4308,
      "dw": 4309,
      "dy": 4310,
      "dan": 4311,
      "dis": 4312,
      "dled": 4313,
      "donna": 4314,
      "dying": 4315,
      "drop": 4316,
      "dandelion": 4317,
      "eg": 4318,
      "ein": 4319,
      "eyes": 4320,
      "elect": 4321,
      "ecut": 4322,
      "elabor": 4323,
      "fee": 4324,
      "find": 4325,
      "free": 4326,
      "faf": 4327,
      "face": 4328,
      "fingerspe": 4329,
      "farewell": 4330,
      "firm": 4331,
      "gy": 4332,
      "ged": 4333,
      "gth": 4334,
      "give": 4335,
      "gue": 4336,
      "gree": 4337,
      "gates": 4338,
      "gbt": 4339,
      "han": 4340,
      "hor": 4341,
      "hal": 4342,
      "hud": 4343,
      "house": 4344,
      "hope": 4345,
      "hib": 4346,
      "hours": 4347,
      "hospital": 4348,
      "hdi": 4349,
      "iant": 4350,
      "ires": 4351,
      "iated": 4352,
      "ierson": 4353,
      "iag": 4354,
      "iations": 4355,
      "ipping": 4356,
      "ibel": 4357,
      "jud": 4358,
      "keep": 4359,
      "lc": 4360,
      "lou": 4361,
      "ler": 4362,
      "lic": 4363,
      "lif": 4364,
      "lry": 4365,
      "list": 4366,
      "lim": 4367,
      "lose": 4368,
      "los": 4369,
      "little": 4370,
      "luck": 4371,
      "lson": 4372,
      "liter": 4373,
      "mon": 4374,
      "men": 4375,
      "mis": 4376,
      "mic": 4377,
      "might": 4378,
      "much": 4379,
      "mde": 4380,
      "mute": 4381,
      "mail": 4382,
      "non": 4383,
      "nif": 4384,
      "nize": 4385,
      "nator": 4386,
      "norm": 4387,
      "nops": 4388,
      "ox": 4389,
      "oso": 4390,
      "ock": 4391,
      "oices": 4392,
      "oops": 4393,
      "ovo": 4394,
      "olyn": 4395,
      "pm": 4396,
      "ping": 4397,
      "pres": 4398,
      "polog": 4399,
      "pull": 4400,
      "pany": 4401,
      "pically": 4402,
      "phy": 4403,
      "psych": 4404,
      "rc": 4405,
      "ror": 4406,
      "rast": 4407,
      "ratch": 4408,
      "rations": 4409,
      "ruled": 4410,
      "rific": 4411,
      "sf": 4412,
      "su": 4413,
      "say": 4414,
      "sent": 4415,
      "somet": 4416,
      "sia": 4417,
      "swed": 4418,
      "sub": 4419,
      "serious": 4420,
      "sert": 4421,
      "ti": 4422,
      "tour": 4423,
      "tick": 4424,
      "toussaint": 4425,
      "uf": 4426,
      "uing": 4427,
      "uis": 4428,
      "uction": 4429,
      "umpt": 4430,
      "vd": 4431,
      "var": 4432,
      "val": 4433,
      "vable": 4434,
      "ville": 4435,
      "voting": 4436,
      "vada": 4437,
      "wj": 4438,
      "wl": 4439,
      "won": 4440,
      "wom": 4441,
      "ym": 4442,
      "yay": 4443,
      "yet": 4444,
      "year": 4445,
      "yep": 4446,
      "yles": 4447,
      "yson": 4448,
      "ze": 4449,
      "Â½": 4450,
      "âħ": 4451,
      "Ġess": 4452,
      "ĠÂ½": 4453,
      "Ġâħ": 4454,
      "Ġtall": 4455,
      "Ġtun": 4456,
      "Ġtact": 4457,
      "Ġtong": 4458,
      "Ġtip": 4459,
      "Ġtreat": 4460,
      "Ġtony": 4461,
      "Ġtlc": 4462,
      "hem": 4463,
      "hear": 4464,
      "heel": 4465,
      "health": 4466,
      "heterosexual": 4467,
      "Ġaid": 4468,
      "Ġair": 4469,
      "Ġaunt": 4470,
      "Ġapolog": 4471,
      "Ġauction": 4472,
      "Ġahem": 4473,
      "inf": 4474,
      "inion": 4475,
      "inte": 4476,
      "insp": 4477,
      "inside": 4478,
      "inny": 4479,
      "inners": 4480,
      "Ġwed": 4481,
      "Ġwiger": 4482,
      "Ġwheel": 4483,
      "Ġwinners": 4484,
      "rey": 4485,
      "real": 4486,
      "rece": 4487,
      "rely": 4488,
      "reement": 4489,
      "ancial": 4490,
      "Ġsan": 4491,
      "Ġsom": 4492,
      "Ġske": 4493,
      "Ġsize": 4494,
      "Ġsings": 4495,
      "Ġsinger": 4496,
      "Ġsmoke": 4497,
      "Ġtheat": 4498,
      "Ġii": 4499,
      "Ġign": 4500,
      "Ġiowa": 4501,
      "Ġironic": 4502,
      "atory": 4503,
      "ativity": 4504,
      "oni": 4505,
      "ones": 4506,
      "onto": 4507,
      "erc": 4508,
      "erve": 4509,
      "eral": 4510,
      "eriv": 4511,
      "erade": 4512,
      "ergy": 4513,
      "Ġthom": 4514,
      "Ġthumb": 4515,
      "Ġthurs": 4516,
      "orse": 4517,
      "orpor": 4518,
      "inging": 4519,
      "Ġcir": 4520,
      "Ġcup": 4521,
      "Ġcage": 4522,
      "Ġcab": 4523,
      "Ġcher": 4524,
      "Ġcast": 4525,
      "Ġcore": 4526,
      "Ġcues": 4527,
      "Ġcohn": 4528,
      "Ġcath": 4529,
      "Ġcats": 4530,
      "Ġcross": 4531,
      "Ġcredit": 4532,
      "Ġps": 4533,
      "Ġpers": 4534,
      "Ġpup": 4535,
      "Ġpave": 4536,
      "Ġpress": 4537,
      "Ġpound": 4538,
      "Ġpsa": 4539,
      "Ġpath": 4540,
      "Ġmn": 4541,
      "Ġmer": 4542,
      "Ġmand": 4543,
      "Ġmoo": 4544,
      "Ġmir": 4545,
      "Ġmart": 4546,
      "Ġmuse": 4547,
      "Ġmoun": 4548,
      "Ġmood": 4549,
      "Ġmag": 4550,
      "Ġmission": 4551,
      "Ġmde": 4552,
      "Ġmens": 4553,
      "Ġmute": 4554,
      "Ġmowing": 4555,
      "Ġmales": 4556,
      "Ġmitts": 4557,
      "llad": 4558,
      "Ġdot": 4559,
      "Ġdut": 4560,
      "Ġdry": 4561,
      "Ġdri": 4562,
      "Ġditch": 4563,
      "Ġdream": 4564,
      "Ġdimin": 4565,
      "Ġddw": 4566,
      "Ġdiag": 4567,
      "Ġdvd": 4568,
      "Ġderiv": 4569,
      "ando": 4570,
      "itc": 4571,
      "itz": 4572,
      "iters": 4573,
      "itals": 4574,
      "asu": 4575,
      "asking": 4576,
      "associ": 4577,
      "enjoy": 4578,
      "enics": 4579,
      "Ġtoy": 4580,
      "Ġtore": 4581,
      "Ġtown": 4582,
      "Ġtowards": 4583,
      "edy": 4584,
      "eday": 4585,
      "edia": 4586,
      "Ġfis": 4587,
      "Ġfight": 4588,
      "Ġfru": 4589,
      "Ġfuck": 4590,
      "Ġfisc": 4591,
      "Ġfabul": 4592,
      "Ġftd": 4593,
      "Ġfinger": 4594,
      "Ġfarewell": 4595,
      "Ġband": 4596,
      "Ġben": 4597,
      "Ġbed": 4598,
      "Ġbent": 4599,
      "Ġbend": 4600,
      "Ġbri": 4601,
      "Ġbag": 4602,
      "Ġbull": 4603,
      "Ġbird": 4604,
      "Ġbought": 4605,
      "Ġhus": 4606,
      "Ġhill": 4607,
      "Ġhun": 4608,
      "Ġhook": 4609,
      "Ġhired": 4610,
      "Ġhidden": 4611,
      "Ġled": 4612,
      "Ġlad": 4613,
      "Ġlog": 4614,
      "Ġloy": 4615,
      "Ġlying": 4616,
      "Ġlgbt": 4617,
      "esides": 4618,
      "youth": 4619,
      "Ġove": 4620,
      "Ġoli": 4621,
      "Ġodd": 4622,
      "Ġoils": 4623,
      "Ġowl": 4624,
      "arr": 4625,
      "arks": 4626,
      "arian": 4627,
      "Ġincome": 4628,
      "Ġinde": 4629,
      "ows": 4630,
      "veol": 4631,
      "omic": 4632,
      "leus": 4633,
      "lead": 4634,
      "lement": 4635,
      "lets": 4636,
      "lebee": 4637,
      "legates": 4638,
      "Ġna": 4639,
      "Ġnar": 4640,
      "Ġnut": 4641,
      "Ġnad": 4642,
      "Ġnur": 4643,
      "Ġnose": 4644,
      "Ġnuc": 4645,
      "Ġnap": 4646,
      "Ġnerv": 4647,
      "Ġgut": 4648,
      "Ġgun": 4649,
      "Ġgated": 4650,
      "Ġgaz": 4651,
      "Ġgives": 4652,
      "Ġglo": 4653,
      "Ġgathered": 4654,
      "Ġgala": 4655,
      "Ġgym": 4656,
      "usive": 4657,
      "ussia": 4658,
      "three": 4659,
      "eage": 4660,
      "Ġanderson": 4661,
      "Ġhayes": 4662,
      "Ġhalt": 4663,
      "icies": 4664,
      "icans": 4665,
      "icated": 4666,
      "alist": 4667,
      "alone": 4668,
      "along": 4669,
      "Ġweed": 4670,
      "aybill": 4671,
      "ots": 4672,
      "otin": 4673,
      "otape": 4674,
      "Ġred": 4675,
      "Ġreno": 4676,
      "Ġrevers": 4677,
      "Ġreje": 4678,
      "Ġrecomm": 4679,
      "Ġreject": 4680,
      "Ġreduced": 4681,
      "Ġecon": 4682,
      "Ġeug": 4683,
      "Ġego": 4684,
      "Ġehdi": 4685,
      "igo": 4686,
      "igate": 4687,
      "igible": 4688,
      "utic": 4689,
      "Ġbehal": 4690,
      "ldiers": 4691,
      "alla": 4692,
      "allow": 4693,
      "alley": 4694,
      "Ġheat": 4695,
      "Ġheal": 4696,
      "Ġhero": 4697,
      "ider": 4698,
      "idate": 4699,
      "idence": 4700,
      "soon": 4701,
      "Ġste": 4702,
      "Ġstan": 4703,
      "Ġstyle": 4704,
      "Ġstyles": 4705,
      "enty": 4706,
      "ential": 4707,
      "Ġisra": 4708,
      "seen": 4709,
      "seem": 4710,
      "search": 4711,
      "seems": 4712,
      "Ġforces": 4713,
      "char": 4714,
      "chure": 4715,
      "chair": 4716,
      "choose": 4717,
      "....": 4718,
      "oping": 4719,
      "Ġkno": 4720,
      "Ġkapp": 4721,
      "illiant": 4722,
      "mean": 4723,
      "ooth": 4724,
      "Ġasleep": 4725,
      "weren": 4726,
      "week": 4727,
      "welcome": 4728,
      "welry": 4729,
      "stop": 4730,
      "stant": 4731,
      "state": 4732,
      "stri": 4733,
      "stein": 4734,
      "outla": 4735,
      "Ġdeafhood": 4736,
      "eeee": 4737,
      "eered": 4738,
      "ift": 4739,
      "Ġpoor": 4740,
      "ceived": 4741,
      "Ġsigners": 4742,
      "Ġsignify": 4743,
      "adwas": 4744,
      "Ġja": 4745,
      "Ġjoy": 4746,
      "Ġjens": 4747,
      "Ġjames": 4748,
      "forward": 4749,
      "Ġmoder": 4750,
      "Ġmodif": 4751,
      "roit": 4752,
      "robe": 4753,
      "roving": 4754,
      "rendition": 4755,
      "independent": 4756,
      "Ġnegot": 4757,
      "Ġnevada": 4758,
      "Ġexcept": 4759,
      "Ġexists": 4760,
      "Ġexecut": 4761,
      "toff": 4762,
      "Ġabuse": 4763,
      "Ġability": 4764,
      "Ġabsolutely": 4765,
      "Ġcanny": 4766,
      "Ġcanney": 4767,
      "mpf": 4768,
      "Ġate": 4769,
      "Ġatte": 4770,
      "Ġallyson": 4771,
      "Ġlie": 4772,
      "Ġliber": 4773,
      "Ġlips": 4774,
      "ulated": 4775,
      "...[": 4776,
      "Ġnotes": 4777,
      "istant": 4778,
      "istical": 4779,
      "istration": 4780,
      "Ġved": 4781,
      "Ġvick": 4782,
      "Ġvia": 4783,
      "Ġvac": 4784,
      "Ġvrs": 4785,
      "Ġvalley": 4786,
      "behind": 4787,
      "Ġshu": 4788,
      "Ġshun": 4789,
      "Ġshame": 4790,
      "Ġshade": 4791,
      "Ġshifts": 4792,
      "cking": 4793,
      "Ġthinks": 4794,
      "Ġri": 4795,
      "Ġrhe": 4796,
      "Ġring": 4797,
      "Ġrate": 4798,
      "Ġramp": 4799,
      "Ġrough": 4800,
      "Ġraff": 4801,
      "Ġriver": 4802,
      "Ġrussia": 4803,
      "arte": 4804,
      "imum": 4805,
      "imming": 4806,
      "Ġgollad": 4807,
      "tern": 4808,
      "terday": 4809,
      "Ġengland": 4810,
      "Ġenergy": 4811,
      "Ġordered": 4812,
      "Ġsolo": 4813,
      "Ġsoldiers": 4814,
      "Ġalive": 4815,
      "Ġalice": 4816,
      "Ġalveol": 4817,
      "essor": 4818,
      "Ġlikely": 4819,
      "Ġchuck": 4820,
      "Ġcharter": 4821,
      "Ġchoices": 4822,
      "Ġconfl": 4823,
      "Ġcongress": 4824,
      "quet": 4825,
      "quite": 4826,
      "quality": 4827,
      "querade": 4828,
      "Ġsomewhat": 4829,
      "Ġsomewhere": 4830,
      "rently": 4831,
      "therefore": 4832,
      "Ġproduced": 4833,
      "Ġprogress": 4834,
      "derful": 4835,
      "Ġupcom": 4836,
      "Ġupbr": 4837,
      "Ġupset": 4838,
      "Ġworkout": 4839,
      "Ġthemes": 4840,
      "olic": 4841,
      "olves": 4842,
      "oluted": 4843,
      "respon": 4844,
      "aine": 4845,
      "mbol": 4846,
      "Ġtrust": 4847,
      "Ġtrack": 4848,
      "Ġtruth": 4849,
      "Ġwhose": 4850,
      "Ġcommand": 4851,
      "Ġ14": 4852,
      "Ġseg": 4853,
      "Ġsees": 4854,
      "Ġsection": 4855,
      "Ġself": 4856,
      "Ġwrap": 4857,
      "Ġwrites": 4858,
      "Ġwriters": 4859,
      "odd": 4860,
      "odel": 4861,
      "Ġplus": 4862,
      "Ġplenty": 4863,
      "Ġunit": 4864,
      "Ġ26": 4865,
      "Ġ28": 4866,
      "ended": 4867,
      "endations": 4868,
      "Ġoutlet": 4869,
      "Ġdev": 4870,
      "Ġdean": 4871,
      "Ġdell": 4872,
      "Ġdeath": 4873,
      "Ġdeliber": 4874,
      "Ġdegree": 4875,
      "Ġexposed": 4876,
      "iels": 4877,
      "ievable": 4878,
      "Ġada": 4879,
      "Ġadult": 4880,
      "Ġadding": 4881,
      "Ġadmin": 4882,
      "Ġadmission": 4883,
      "Ġadverb": 4884,
      "Ġadjective": 4885,
      "Ġhowie": 4886,
      "Ġpercept": 4887,
      "Ġpermit": 4888,
      "Ġpercent": 4889,
      "Ġpermission": 4890,
      "Ġmanag": 4891,
      "Ġmanual": 4892,
      "ivate": 4893,
      "ivities": 4894,
      "izona": 4895,
      "ouns": 4896,
      "ounding": 4897,
      "Ġsaving": 4898,
      "assed": 4899,
      "assoni": 4900,
      "without": 4901,
      "Ġdifferently": 4902,
      "Ġclw": 4903,
      "Ġplayer": 4904,
      "Ġneeding": 4905,
      "Ġpersonal": 4906,
      "Ġquotes": 4907,
      "Ġaging": 4908,
      "Ġagent": 4909,
      "Ġagreement": 4910,
      "Ġbutterfly": 4911,
      "arer": 4912,
      "acked": 4913,
      "Ġdisag": 4914,
      "Ġdiscl": 4915,
      "Ġdissol": 4916,
      "Ġdisplay": 4917,
      "Ġdissert": 4918,
      "Ġacres": 4919,
      "Ġames": 4920,
      "Ġspl": 4921,
      "Ġspice": 4922,
      "Ġspores": 4923,
      "Ġsparks": 4924,
      "apy": 4925,
      "apher": 4926,
      "aging": 4927,
      "Ġparties": 4928,
      "Ġpartne": 4929,
      "Ġpartners": 4930,
      "Ġnoise": 4931,
      "click": 4932,
      "club": 4933,
      "telling": 4934,
      "Ġevolved": 4935,
      "Ġinterferences": 4936,
      "Ġinterfere": 4937,
      "ogy": 4938,
      "Ġshown": 4939,
      "xture": 4940,
      "Ġgraybill": 4941,
      "umin": 4942,
      "umed": 4943,
      "occur": 4944,
      "Ġasks": 4945,
      "atively": 4946,
      "Ġcontract": 4947,
      "uel": 4948,
      "Ġnewsp": 4949,
      "Ġnewborn": 4950,
      "bling": 4951,
      "bles": 4952,
      "Ġstatewide": 4953,
      "Ġ31": 4954,
      "Ġprev": 4955,
      "Ġpreference": 4956,
      "Ġpretend": 4957,
      "Ġprejud": 4958,
      "contain": 4959,
      "Ġacted": 4960,
      "Ġactivities": 4961,
      "Ġpride": 4962,
      "Ġprize": 4963,
      "Ġprizes": 4964,
      "Ġputs": 4965,
      "Ġgreater": 4966,
      "como": 4967,
      "compared": 4968,
      "Ġsupple": 4969,
      "previous": 4970,
      "pretty": 4971,
      "preps": 4972,
      "noon": 4973,
      "nothing": 4974,
      "Ġgoodbye": 4975,
      "Ġreadings": 4976,
      "Ġtransition": 4977,
      "Ġcalling": 4978,
      "Ġloves": 4979,
      "ughters": 4980,
      "icking": 4981,
      "Ġmeets": 4982,
      "portation": 4983,
      "yesterday": 4984,
      "ervation": 4985,
      "erville": 4986,
      "ressive": 4987,
      "erior": 4988,
      "Ġbored": 4989,
      "Ġwondered": 4990,
      "educational": 4991,
      "Ġfindings": 4992,
      "Ġcreativity": 4993,
      "ologue": 4994,
      "creating": 4995,
      "noticed": 4996,
      "Ġbrus": 4997,
      "Ġbraz": 4998,
      "Ġbrilliant": 4999,
      "Ġcomparing": 5000,
      "Ġletting": 5001,
      "Ġletters": 5002,
      "Ġafford": 5003,
      "Ġaffirm": 5004,
      "Ġclassmates": 5005,
      "Ġstorytell": 5006,
      "Ġresident": 5007,
      "Ġresistant": 5008,
      "Ġeducational": 5009,
      "Ġcoed": 5010,
      "Ġcover": 5011,
      "Ġcobwe": 5012,
      "Ġfinish": 5013,
      "Ġfinancial": 5014,
      "learned": 5015,
      "Ġjoe": 5016,
      "Ġ1940": 5017,
      "wned": 5018,
      "Ġshouldn": 5019,
      "Ġ49": 5020,
      "Ġappoint": 5021,
      "Ġappeared": 5022,
      "Ġapplebee": 5023,
      "Ġaudiology": 5024,
      "Ġaudiogr": 5025,
      "Ġfacial": 5026,
      "Ġfacil": 5027,
      "Ġlastly": 5028,
      "Ġinvite": 5029,
      "Ġinvolve": 5030,
      "Ġoffering": 5031,
      "Ġformed": 5032,
      "moved": 5033,
      "moving": 5034,
      "appreci": 5035,
      "apeutic": 5036,
      "manual": 5037,
      "shouting": 5038,
      "shampoo": 5039,
      "Ġrealization": 5040,
      "Ġideal": 5041,
      "Ġcaf": 5042,
      "Ġcause": 5043,
      "Ġcauses": 5044,
      "Ġexplaining": 5045,
      "Ġtranslations": 5046,
      "bernard": 5047,
      "bernator": 5048,
      "small": 5049,
      "Ġnuance": 5050,
      "Ġearth": 5051,
      "sphor": 5052,
      "Ġdecision": 5053,
      "debbie": 5054,
      "decide": 5055,
      "delegates": 5056,
      "ensus": 5057,
      "ensure": 5058,
      "Ġgrowth": 5059,
      "mmm": 5060,
      "Ġpresenting": 5061,
      "anything": 5062,
      "Ġspell": 5063,
      "Ġphd": 5064,
      "Ġphi": 5065,
      "Ġguy": 5066,
      "Ġgubernator": 5067,
      "azine": 5068,
      "versial": 5069,
      "Ġsecondary": 5070,
      "Ġafternoon": 5071,
      "Ġtended": 5072,
      "Ġlaced": 5073,
      "Ġopinion": 5074,
      "irling": 5075,
      "Ġbelong": 5076,
      "Ġeventually": 5077,
      "particip": 5078,
      "race": 5079,
      "Ġsurface": 5080,
      "Ġclearwater": 5081,
      "Ġmatt": 5082,
      "Ġmentally": 5083,
      "Ġmentors": 5084,
      "Ġendorse": 5085,
      "typically": 5086,
      "Ġtestify": 5087,
      "Ġsmile": 5088,
      "Ġfriendly": 5089,
      "Ġgenitals": 5090,
      "Ġregional": 5091,
      "Ġassume": 5092,
      "Ġassumpt": 5093,
      "Ġassumed": 5094,
      "Ġcontinues": 5095,
      "Ġsynops": 5096,
      "Ġsymbol": 5097,
      "Ġbuilt": 5098,
      "Ġnights": 5099,
      "Ġenjoyable": 5100,
      "Ġsimilarity": 5101,
      "ballin": 5102,
      "Ġmostly": 5103,
      "els": 5104,
      "Ġsets": 5105,
      "Ġrecall": 5106,
      "Ġrecent": 5107,
      "Ġidentify": 5108,
      "Ġopening": 5109,
      "visual": 5110,
      "Ġchecklist": 5111,
      "Ġprofessor": 5112,
      "âĢĿ,": 5113,
      "Ġtermin": 5114,
      "Ġterrible": 5115,
      "Ġterrific": 5116,
      "Ġawful": 5117,
      "Ġawaren": 5118,
      "Ġsumm": 5119,
      "Ġsummar": 5120,
      "Ġmarry": 5121,
      "Ġmarie": 5122,
      "Ġmaria": 5123,
      "Ġdrive": 5124,
      "Ġdram": 5125,
      "Ġrepetition": 5126,
      "Ġreplicate": 5127,
      "Ġreplace": 5128,
      "Ġchanging": 5129,
      "Ġstrongly": 5130,
      "Ġbelief": 5131,
      "Ġbelieved": 5132,
      "viously": 5133,
      "Ġimages": 5134,
      "Ġpark": 5135,
      "Ġheadqu": 5136,
      "Ġallowing": 5137,
      "Ġimpacted": 5138,
      "Ġinterpreted": 5139,
      "cheering": 5140,
      "signing": 5141,
      "Ġflo": 5142,
      "Ġflat": 5143,
      "Ġflour": 5144,
      "Ġflash": 5145,
      "Ġfilms": 5146,
      "Ġreceives": 5147,
      "Ġreceiving": 5148,
      "curriculum": 5149,
      "currently": 5150,
      "poor": 5151,
      "Ġclap": 5152,
      "Ġclaim": 5153,
      "Ġcounty": 5154,
      "Ġmonday": 5155,
      "Ġmonologue": 5156,
      "Ġinstead": 5157,
      "Ġelimin": 5158,
      "Ġeligible": 5159,
      "Ġjunior": 5160,
      "Ġattached": 5161,
      "Ġproduce": 5162,
      "Ġadvantage": 5163,
      "Ġplacement": 5164,
      "mined": 5165,
      "minim": 5166,
      "Ġentry": 5167,
      "Ġentire": 5168,
      "Ġentered": 5169,
      "Ġcrow": 5170,
      "Ġcrack": 5171,
      "Ġcrazy": 5172,
      "Ġcentre": 5173,
      "Ġpublicity": 5174,
      "Ġmusicals": 5175,
      "Ġleaving": 5176,
      "Ġstandard": 5177,
      "Ġpostings": 5178,
      "mostly": 5179,
      "Ġfilmed": 5180,
      "Ġfilmstri": 5181,
      "sonny": 5182,
      "Ġcarson": 5183,
      "Ġcarolyn": 5184,
      "Ġdistance": 5185,
      "Ġdistribut": 5186,
      "Ġfactor": 5187,
      "Ġfactory": 5188,
      "Ġorganized": 5189,
      "Ġorganizations": 5190,
      "Ġ1272": 5191,
      "Ġinternet": 5192,
      "parent": 5193,
      "Ġdaily": 5194,
      "Ġdaughters": 5195,
      "Ġdawned": 5196,
      "Ġequals": 5197,
      "identity": 5198,
      "Ġdepth": 5199,
      "Ġamazed": 5200,
      "Ġ1984": 5201,
      "Ġ1985": 5202,
      "Ġcollective": 5203,
      "workers": 5204,
      "Ġcaptions": 5205,
      "tidfaf": 5206,
      "Ġ70": 5207,
      "Ġcordan": 5208,
      "Ġpaying": 5209,
      "Ġpicks": 5210,
      "Ġlesson": 5211,
      "additional": 5212,
      "Ġshoes": 5213,
      "Ġshooting": 5214,
      "Ġraise": 5215,
      "Ġtrained": 5216,
      "aphors": 5217,
      "Ġvideotapes": 5218,
      "Ġassisted": 5219,
      "Ġassistive": 5220,
      "Ġassistance": 5221,
      "Ġassistants": 5222,
      "Ġtypical": 5223,
      "Ġanalyzed": 5224,
      "finish": 5225,
      "Ġslot": 5226,
      "Ġsorrow": 5227,
      "Ġpurple": 5228,
      "Ġpurpose": 5229,
      "Ġfarm": 5230,
      "Ġfarther": 5231,
      "Ġconsist": 5232,
      "Ġconsult": 5233,
      "Ġconsider": 5234,
      "Ġconsensus": 5235,
      "Ġparticipating": 5236,
      "Ġparticipants": 5237,
      "Ġmajors": 5238,
      "Ġmajored": 5239,
      "Ġclassifier": 5240,
      "Ġfrustrations": 5241,
      "Ġfrustrating": 5242,
      "Ġflags": 5243,
      "Ġcollaboration": 5244,
      "accor": 5245,
      "aching": 5246,
      "project": 5247,
      "Ġscri": 5248,
      "Ġscratch": 5249,
      "Ġcounts": 5250,
      "Ġpreschool": 5251,
      "Ġpreserve": 5252,
      "Ġpreservation": 5253,
      "Ġdesign": 5254,
      "Ġdesire": 5255,
      "Ġbash": 5256,
      "Ġbasic": 5257,
      "Ġsocialize": 5258,
      "Ġsecrecy": 5259,
      "Ġrequested": 5260,
      "Ġ504": 5261,
      "Ġsystems": 5262,
      "Ġintroduced": 5263,
      "Ġintroducing": 5264,
      "Ġvariable": 5265,
      "Ġadvocated": 5266,
      "Ġsidewalk": 5267,
      "Ġcells": 5268,
      "Ġpsychologically": 5269,
      "Ġdominican": 5270,
      "Ġbiological": 5271,
      "Ġbiology": 5272,
      "Ġbiologically": 5273,
      "Ġlays": 5274,
      "Ġnecessary": 5275,
      "Ġrichard": 5276,
      "Ġproper": 5277,
      "Ġpropose": 5278,
      "bbi": 5279,
      "wanted": 5280,
      "Ġpainful": 5281,
      "Ġpainting": 5282,
      "Ġpainted": 5283,
      "Ġmouths": 5284,
      "Ġdanced": 5285,
      "Ġdaniels": 5286,
      "Ġbroke": 5287,
      "Ġbrochure": 5288,
      "Ġinspire": 5289,
      "Ġstatus": 5290,
      "Ġstatic": 5291,
      "Ġstatue": 5292,
      "Ġassociated": 5293,
      "Ġextent": 5294,
      "Ġextra": 5295,
      "Ġyells": 5296,
      "continues": 5297,
      "Ġ1973": 5298,
      "Ġbusinesses": 5299,
      "2016": 5300,
      "2017": 5301,
      "watching": 5302,
      "Ġ85": 5303,
      "Ġtwin": 5304,
      "Ġtwirling": 5305,
      "Ġscream": 5306,
      "Ġpopular": 5307,
      "Ġmixing": 5308,
      "Ġmixed": 5309,
      "Ġboring": 5310,
      "Ġbarriers": 5311,
      "Ġlouis": 5312,
      "Ġlourey": 5313,
      "Ġlicensure": 5314,
      "Ġanimal": 5315,
      "Ġincorpor": 5316,
      "Ġnomination": 5317,
      "Ġnominate": 5318,
      "Ġremodel": 5319,
      "Ġeffort": 5320,
      "Ġpossibly": 5321,
      "Ġconvin": 5322,
      "Ġconvoluted": 5323,
      "Ġagency": 5324,
      "Ġaccepted": 5325,
      "Ġtelevision": 5326,
      "community": 5327,
      "Ġvisionary": 5328,
      "performing": 5329,
      "performance": 5330,
      "Ġmajoring": 5331,
      "Ġviewing": 5332,
      "Ġcharacteristics": 5333,
      "cuando": 5334,
      "central": 5335,
      "hands": 5336,
      "handed": 5337,
      "survive": 5338,
      "virginia": 5339,
      "Ġswimming": 5340,
      "Ġsleeping": 5341,
      "Ġcases": 5342,
      "Ġcasual": 5343,
      "Ġcleanse": 5344,
      "Ġclearer": 5345,
      "Ġdetails": 5346,
      "Ġdetroit": 5347,
      "Ġdhhs": 5348,
      "study": 5349,
      "studies": 5350,
      "students": 5351,
      "starting": 5352,
      "Ġjohnson": 5353,
      "Ġchallenge": 5354,
      "Ġchallenges": 5355,
      "Ġchallenged": 5356,
      "Ġaccompany": 5357,
      "Ġ1991": 5358,
      "Ġ1993": 5359,
      "Ġ1996": 5360,
      "Ġfairmount": 5361,
      "Ġcelebration": 5362,
      "Ġcelebrating": 5363,
      "Ġemotional": 5364,
      "Ġoccurred": 5365,
      "clean": 5366,
      "ddw": 5367,
      "friendly": 5368,
      "policies": 5369,
      "ronovo": 5370,
      "setting": 5371,
      "schools": 5372,
      "Ġtreasure": 5373,
      "Ġsentence": 5374,
      "Ġsisters": 5375,
      "Ġsilence": 5376,
      "Ġimmigr": 5377,
      "Ġpanel": 5378,
      "Ġpiercing": 5379,
      "Ġpiercings": 5380,
      "Ġhurts": 5381,
      "Ġgaining": 5382,
      "Ġgained": 5383,
      "Ġstumpf": 5384,
      "unteered": 5385,
      "Ġlimiting": 5386,
      "Ġrunning": 5387,
      "Ġseparate": 5388,
      "Ġseparately": 5389,
      "Ġaccount": 5390,
      "Ġaccident": 5391,
      "ographic": 5392,
      "ographer": 5393,
      "Ġcontrolled": 5394,
      "Ġcontroversial": 5395,
      "Ġfacebook": 5396,
      "Ġofficial": 5397,
      "Ġsurprising": 5398,
      "Ġvisualize": 5399,
      "Ġattended": 5400,
      "Ġcriteria": 5401,
      "playing": 5402,
      "Ġcaptivating": 5403,
      "transl": 5404,
      "Ġscreening": 5405,
      "Ġbirths": 5406,
      "Ġlesbians": 5407,
      "efa": 5408,
      "following": 5409,
      "maad": 5410,
      "senator": 5411,
      "senior": 5412,
      "taken": 5413,
      "aneous": 5414,
      "Ġsoup": 5415,
      "Ġcampus": 5416,
      "Ġportion": 5417,
      "Ġpublished": 5418,
      "Ġpadden": 5419,
      "Ġmilk": 5420,
      "Ġdysphor": 5421,
      "Ġtotally": 5422,
      "Ġfurther": 5423,
      "Ġbanned": 5424,
      "Ġbanquet": 5425,
      "Ġhoping": 5426,
      "Ġinformed": 5427,
      "legislative": 5428,
      "thirdly": 5429,
      "Ġembrace": 5430,
      "Ġnearby": 5431,
      "Ġvolume": 5432,
      "Ġvolunteered": 5433,
      "Ġvocational": 5434,
      "Ġshoplif": 5435,
      "Ġoriginal": 5436,
      "Ġoriginally": 5437,
      "Ġconnect": 5438,
      "Ġconnection": 5439,
      "Ġtraveled": 5440,
      "Ġtraveling": 5441,
      "Ġoutlined": 5442,
      "needed": 5443,
      "Ġapproaching": 5444,
      "Ġfavored": 5445,
      "Ġphoto": 5446,
      "Ġphotographer": 5447,
      "Ġrecognized": 5448,
      "Ġproposal": 5449,
      "experi": 5450,
      "discuss": 5451,
      "discussing": 5452,
      "Ġborrowing": 5453,
      "Ġborrowed": 5454,
      "Ġbreaking": 5455,
      "Ġbreaks": 5456,
      "Ġeuropean": 5457,
      "Ġenvironments": 5458,
      "Ġenvironmental": 5459,
      "juarez": 5460,
      "location": 5461,
      "obviously": 5462,
      "videos": 5463,
      "videotape": 5464,
      "vocational": 5465,
      "windy": 5466,
      "Ġzeta": 5467,
      "reflection": 5468,
      "Ġserve": 5469,
      "Ġseries": 5470,
      "Ġtherapy": 5471,
      "Ġtherapeutic": 5472,
      "original": 5473,
      "originally": 5474,
      "Ġcrying": 5475,
      "Ġpleasure": 5476,
      "Ġpush": 5477,
      "Ġpushing": 5478,
      "Ġmike": 5479,
      "Ġmixture": 5480,
      "Ġmichelle": 5481,
      "Ġdeeper": 5482,
      "Ġdeeply": 5483,
      "Ġfederal": 5484,
      "Ġfifth": 5485,
      "Ġflying": 5486,
      "Ġliftoff": 5487,
      "vetoed": 5488,
      "vetoes": 5489,
      "Ġhaiku": 5490,
      "Ġhaikus": 5491,
      "Ġreturn": 5492,
      "Ġresolve": 5493,
      "Ġeighties": 5494,
      "Ġjudges": 5495,
      "Ġconversation": 5496,
      "Ġconcerned": 5497,
      "Ġ1341": 5498,
      "Ġselected": 5499,
      "Ġplanted": 5500,
      "Ġclarity": 5501,
      "Ġlegal": 5502,
      "Ġlegacy": 5503,
      "liberation": 5504,
      "Ġmaximum": 5505,
      "Ġmaxpreps": 5506,
      "Ġarticulation": 5507,
      "Ġarticulated": 5508,
      "Ġgenetic": 5509,
      "Ġgenetics": 5510,
      "Ġassigned": 5511,
      "Ġassignment": 5512,
      "Ġindiana": 5513,
      "Ġintimidated": 5514,
      "Ġparadigm": 5515,
      "Ġparameter": 5516,
      "Ġparallels": 5517,
      "Ġcarolina": 5518,
      "Ġconsuming": 5519,
      "profession": 5520,
      "Ġcounselor": 5521,
      "Ġdescribe": 5522,
      "Ġinspirational": 5523,
      "Ġincredible": 5524,
      "Ġincredibly": 5525,
      "Ġimagining": 5526,
      "Ġsituation": 5527,
      "Ġsituations": 5528,
      "Ġdoubtful": 5529,
      "Ġholidays": 5530,
      "culture": 5531,
      "facial": 5532,
      "metaphors": 5533,
      "panic": 5534,
      "rhythm": 5535,
      "special": 5536,
      "whew": 5537,
      "Ġteardrop": 5538,
      "recogn": 5539,
      "Ġseago": 5540,
      "Ġsemi": 5541,
      "Ġscared": 5542,
      "Ġthrilled": 5543,
      "organizations": 5544,
      "Ġpioneers": 5545,
      "Ġpunishing": 5546,
      "Ġpackard": 5547,
      "Ġpowerful": 5548,
      "Ġmasquerade": 5549,
      "Ġtomassoni": 5550,
      "Ġflex": 5551,
      "Ġfounder": 5552,
      "Ġbanks": 5553,
      "Ġleroy": 5554,
      "Ġinclusion": 5555,
      "Ġnormal": 5556,
      "Ġgoogle": 5557,
      "Ġheaven": 5558,
      "Ġmelissa": 5559,
      "Ġkeys": 5560,
      "Ġjews": 5561,
      "Ġjazzberry": 5562,
      "Ġconditioner": 5563,
      "Ġtraditional": 5564,
      "Ġtrimmer": 5565,
      "Ġtriplets": 5566,
      "Ġadvisor": 5567,
      "Ġdissemin": 5568,
      "Ġdisappoint": 5569,
      "Ġspiritual": 5570,
      "Ġfeedback": 5571,
      "Ġmachine": 5572,
      "Ġcomplained": 5573,
      "Ġafrica": 5574,
      "Ġrocket": 5575,
      "Ġappreciated": 5576,
      "Ġphiloso": 5577,
      "Ġphysical": 5578,
      "lesbians": 5579,
      "Ġdrinks": 5580,
      "Ġintrusion": 5581,
      "Ġfluent": 5582,
      "Ġopposite": 5583,
      "Ġsucceeded": 5584,
      "minnesotans": 5585,
      "Ġvegetables": 5586,
      "Ġresponded": 5587,
      "Ġbrainwashed": 5588,
      "Ġdynamic": 5589,
      "regarding": 5590,
      "Ġcroatia": 5591,
      "Ġpuzzled": 5592,
      "candidates": 5593,
      "disability": 5594,
      "elaborate": 5595,
      "feel": 5596,
      "huddled": 5597,
      "luckily": 5598,
      "literature": 5599,
      "president": 5600,
      "psychological": 5601,
      "sometime": 5602,
      "seriously": 5603,
      "tickets": 5604,
      "wonderful": 5605,
      "women": 5606,
      "Ġtuned": 5607,
      "Ġtactile": 5608,
      "Ġtongue": 5609,
      "Ġapologize": 5610,
      "integrated": 5611,
      "inspired": 5612,
      "Ġwednesday": 5613,
      "receives": 5614,
      "Ġsomeday": 5615,
      "Ġskewed": 5616,
      "Ġtheatre": 5617,
      "Ġignore": 5618,
      "Ġthursday": 5619,
      "Ġcircle": 5620,
      "Ġcherish": 5621,
      "Ġcorey": 5622,
      "Ġpupils": 5623,
      "Ġpavement": 5624,
      "Ġpounds": 5625,
      "Ġmandatory": 5626,
      "Ġmoore": 5627,
      "Ġmuseum": 5628,
      "Ġmountain": 5629,
      "Ġmagazine": 5630,
      "Ġdriver": 5631,
      "Ġderivatives": 5632,
      "association": 5633,
      "Ġfischer": 5634,
      "Ġfighting": 5635,
      "Ġfucks": 5636,
      "Ġfiscal": 5637,
      "Ġfabulous": 5638,
      "Ġbrian": 5639,
      "Ġhusband": 5640,
      "Ġoliver": 5641,
      "Ġnursing": 5642,
      "Ġnucleus": 5643,
      "Ġnaperville": 5644,
      "Ġnervous": 5645,
      "Ġguns": 5646,
      "Ġgaze": 5647,
      "Ġhalted": 5648,
      "Ġrejection": 5649,
      "Ġrecommendations": 5650,
      "Ġeconomic": 5651,
      "Ġeugenics": 5652,
      "Ġbehalf": 5653,
      "Ġknocking": 5654,
      "Ġkappa": 5655,
      "outlaw": 5656,
      "Ġjensen": 5657,
      "Ġmodernize": 5658,
      "Ġmodified": 5659,
      "Ġnegotiations": 5660,
      "Ġvicki": 5661,
      "Ġvacation": 5662,
      "Ġraffle": 5663,
      "Ġgolladay": 5664,
      "Ġalveolar": 5665,
      "Ġconflict": 5666,
      "Ġupcoming": 5667,
      "Ġupbringing": 5668,
      "Ġperception": 5669,
      "Ġpercentage": 5670,
      "Ġmanager": 5671,
      "Ġdissolved": 5672,
      "Ġdissertation": 5673,
      "Ġpartnered": 5674,
      "Ġnewspaper": 5675,
      "Ġsupplemental": 5676,
      "Ġtransitioning": 5677,
      "Ġaffirmative": 5678,
      "Ġresidential": 5679,
      "Ġcobwebs": 5680,
      "Ġappointments": 5681,
      "Ġaudiogram": 5682,
      "Ġfacilities": 5683,
      "Ġgubernatorial": 5684,
      "participant": 5685,
      "Ġassumption": 5686,
      "Ġsynopsis": 5687,
      "Ġawareness": 5688,
      "Ġeliminate": 5689,
      "Ġfilmstrips": 5690,
      "Ġdistribution": 5691,
      "Ġcordano": 5692,
      "according": 5693,
      "Ġscratching": 5694,
      "Ġaccompanying": 5695,
      "Ġdysphoria": 5696,
      "Ġphilosophy": 5697,
      "!)": 5698,
      "\"'": 5699,
      "\";": 5700,
      "%.": 5701,
      "%,\"": 5702,
      "'.": 5703,
      "):": 5704,
      ")âĢĿ.": 5705,
      ",'": 5706,
      ",.": 5707,
      ".,": 5708,
      "/.": 5709,
      "02": 5710,
      "12": 5711,
      "13": 5712,
      "16": 5713,
      "17": 5714,
      "1000": 5715,
      "23": 5716,
      "275": 5717,
      "249": 5718,
      "39": 5719,
      "300": 5720,
      "370": 5721,
      "375": 5722,
      "43": 5723,
      "47": 5724,
      "477": 5725,
      "51": 5726,
      "59": 5727,
      "500": 5728,
      "587": 5729,
      "64": 5730,
      "65": 5731,
      "614": 5732,
      "78": 5733,
      "79": 5734,
      "700": 5735,
      "81": 5736,
      "88": 5737,
      "90": 5738,
      "911": 5739,
      "?!": 5740,
      "?âĢĿ": 5741,
      "],": 5742,
      "au": 5743,
      "ale": 5744,
      "aign": 5745,
      "abe": 5746,
      "aim": 5747,
      "aime": 5748,
      "ault": 5749,
      "acl": 5750,
      "away": 5751,
      "acon": 5752,
      "aug": 5753,
      "auge": 5754,
      "aille": 5755,
      "ba": 5756,
      "bi": 5757,
      "bn": 5758,
      "bon": 5759,
      "bing": 5760,
      "bow": 5761,
      "bus": 5762,
      "bal": 5763,
      "boo": 5764,
      "bly": 5765,
      "bro": 5766,
      "bers": 5767,
      "bust": 5768,
      "bang": 5769,
      "bard": 5770,
      "bine": 5771,
      "bble": 5772,
      "bors": 5773,
      "boss": 5774,
      "bright": 5775,
      "bile": 5776,
      "bra": 5777,
      "bits": 5778,
      "bons": 5779,
      "bisexual": 5780,
      "bidden": 5781,
      "bonding": 5782,
      "bala": 5783,
      "besides": 5784,
      "cb": 5785,
      "cs": 5786,
      "car": 5787,
      "cow": 5788,
      "cig": 5789,
      "cry": 5790,
      "cart": 5791,
      "cort": 5792,
      "city": 5793,
      "cie": 5794,
      "cred": 5795,
      "coh": 5796,
      "coy": 5797,
      "cited": 5798,
      "cults": 5799,
      "cisc": 5800,
      "cold": 5801,
      "cath": 5802,
      "cara": 5803,
      "cars": 5804,
      "cended": 5805,
      "dh": 5806,
      "dent": 5807,
      "dant": 5808,
      "date": 5809,
      "dry": 5810,
      "dist": 5811,
      "dem": 5812,
      "dated": 5813,
      "dence": 5814,
      "doc": 5815,
      "dance": 5816,
      "dep": 5817,
      "dire": 5818,
      "dsp": 5819,
      "deep": 5820,
      "dra": 5821,
      "dify": 5822,
      "diversity": 5823,
      "dream": 5824,
      "dimin": 5825,
      "dandel": 5826,
      "danish": 5827,
      "dark": 5828,
      "dinner": 5829,
      "danne": 5830,
      "densed": 5831,
      "ev": 5832,
      "eat": 5833,
      "eer": 5834,
      "eed": 5835,
      "ext": 5836,
      "ection": 5837,
      "ease": 5838,
      "eli": 5839,
      "element": 5840,
      "ewelry": 5841,
      "fi": 5842,
      "fy": 5843,
      "fan": 5844,
      "fing": 5845,
      "far": 5846,
      "fill": 5847,
      "fif": 5848,
      "fun": 5849,
      "fight": 5850,
      "fish": 5851,
      "fred": 5852,
      "fare": 5853,
      "foc": 5854,
      "found": 5855,
      "fair": 5856,
      "fix": 5857,
      "fense": 5858,
      "festival": 5859,
      "fiction": 5860,
      "failed": 5861,
      "fuel": 5862,
      "gs": 5863,
      "gu": 5864,
      "gar": 5865,
      "gay": 5866,
      "gent": 5867,
      "gun": 5868,
      "gust": 5869,
      "grou": 5870,
      "gend": 5871,
      "gone": 5872,
      "gos": 5873,
      "gestion": 5874,
      "gthen": 5875,
      "gens": 5876,
      "gives": 5877,
      "gonna": 5878,
      "gget": 5879,
      "gues": 5880,
      "givers": 5881,
      "giving": 5882,
      "gressed": 5883,
      "geable": 5884,
      "hb": 5885,
      "hl": 5886,
      "hm": 5887,
      "ho": 5888,
      "hin": 5889,
      "hic": 5890,
      "hot": 5891,
      "hun": 5892,
      "hist": 5893,
      "hang": 5894,
      "hook": 5895,
      "hol": 5896,
      "hone": 5897,
      "hous": 5898,
      "hance": 5899,
      "high": 5900,
      "hitting": 5901,
      "human": 5902,
      "hidden": 5903,
      "hoping": 5904,
      "ias": 5905,
      "iation": 5906,
      "ipp": 5907,
      "iest": 5908,
      "ipe": 5909,
      "iors": 5910,
      "iety": 5911,
      "iology": 5912,
      "iency": 5913,
      "iowa": 5914,
      "ibling": 5915,
      "jo": 5916,
      "js": 5917,
      "jab": 5918,
      "john": 5919,
      "joe": 5920,
      "jazz": 5921,
      "jaime": 5922,
      "kr": 5923,
      "ky": 5924,
      "ker": 5925,
      "ket": 5926,
      "kot": 5927,
      "kill": 5928,
      "kare": 5929,
      "kids": 5930,
      "kather": 5931,
      "kles": 5932,
      "knew": 5933,
      "kins": 5934,
      "kansas": 5935,
      "lv": 5936,
      "lan": 5937,
      "lon": 5938,
      "lor": 5939,
      "land": 5940,
      "low": 5941,
      "lom": 5942,
      "lth": 5943,
      "lers": 5944,
      "live": 5945,
      "long": 5946,
      "lines": 5947,
      "limin": 5948,
      "lived": 5949,
      "lowing": 5950,
      "luis": 5951,
      "mow": 5952,
      "mom": 5953,
      "mid": 5954,
      "mith": 5955,
      "mime": 5956,
      "mult": 5957,
      "mag": 5958,
      "mild": 5959,
      "mull": 5960,
      "mia": 5961,
      "made": 5962,
      "mory": 5963,
      "mile": 5964,
      "mds": 5965,
      "matic": 5966,
      "micals": 5967,
      "mcb": 5968,
      "nan": 5969,
      "nat": 5970,
      "nor": 5971,
      "nis": 5972,
      "nar": 5973,
      "nea": 5974,
      "nic": 5975,
      "nal": 5976,
      "net": 5977,
      "nce": 5978,
      "note": 5979,
      "nape": 5980,
      "nings": 5981,
      "nial": 5982,
      "nomin": 5983,
      "nsy": 5984,
      "ntid": 5985,
      "nada": 5986,
      "nearly": 5987,
      "oa": 5988,
      "oz": 5989,
      "oes": 5990,
      "othe": 5991,
      "ove": 5992,
      "oge": 5993,
      "overy": 5994,
      "oating": 5995,
      "osocial": 5996,
      "pu": 5997,
      "pes": 5998,
      "pid": 5999,
      "poo": 6000,
      "pun": 6001,
      "pant": 6002,
      "pla": 6003,
      "page": 6004,
      "pur": 6005,
      "paring": 6006,
      "pain": 6007,
      "pap": 6008,
      "pog": 6009,
      "pting": 6010,
      "pts": 6011,
      "public": 6012,
      "pier": 6013,
      "pired": 6014,
      "pson": 6015,
      "padd": 6016,
      "path": 6017,
      "petition": 6018,
      "paper": 6019,
      "pays": 6020,
      "peta": 6021,
      "pierson": 6022,
      "picking": 6023,
      "qs": 6024,
      "rit": 6025,
      "run": 6026,
      "rant": 6027,
      "rad": 6028,
      "rate": 6029,
      "rup": 6030,
      "ril": 6031,
      "rang": 6032,
      "rite": 6033,
      "ramp": 6034,
      "rong": 6035,
      "rary": 6036,
      "rick": 6037,
      "rors": 6038,
      "rings": 6039,
      "rna": 6040,
      "rules": 6041,
      "rators": 6042,
      "raph": 6043,
      "riment": 6044,
      "rised": 6045,
      "sn": 6046,
      "sou": 6047,
      "ses": 6048,
      "sso": 6049,
      "sch": 6050,
      "swe": 6051,
      "sation": 6052,
      "sla": 6053,
      "sil": 6054,
      "sort": 6055,
      "sca": 6056,
      "sult": 6057,
      "suc": 6058,
      "save": 6059,
      "sick": 6060,
      "serv": 6061,
      "session": 6062,
      "subl": 6063,
      "sings": 6064,
      "sided": 6065,
      "ssa": 6066,
      "south": 6067,
      "sets": 6068,
      "sitting": 6069,
      "snowflake": 6070,
      "sued": 6071,
      "slight": 6072,
      "subs": 6073,
      "sberg": 6074,
      "sina": 6075,
      "sudden": 6076,
      "smoke": 6077,
      "scat": 6078,
      "sasu": 6079,
      "scars": 6080,
      "tor": 6081,
      "tow": 6082,
      "tld": 6083,
      "top": 6084,
      "till": 6085,
      "tro": 6086,
      "trou": 6087,
      "tort": 6088,
      "tri": 6089,
      "town": 6090,
      "tree": 6091,
      "tations": 6092,
      "tru": 6093,
      "table": 6094,
      "turn": 6095,
      "tise": 6096,
      "ticip": 6097,
      "treat": 6098,
      "tuesday": 6099,
      "tention": 6100,
      "twent": 6101,
      "tified": 6102,
      "torical": 6103,
      "tales": 6104,
      "tailed": 6105,
      "treal": 6106,
      "uo": 6107,
      "uin": 6108,
      "uad": 6109,
      "ument": 6110,
      "uated": 6111,
      "uating": 6112,
      "uable": 6113,
      "uities": 6114,
      "uff": 6115,
      "umental": 6116,
      "uishing": 6117,
      "va": 6118,
      "vy": 6119,
      "vol": 6120,
      "vous": 6121,
      "voice": 6122,
      "vib": 6123,
      "volleyball": 6124,
      "vides": 6125,
      "vention": 6126,
      "votes": 6127,
      "vantage": 6128,
      "vigate": 6129,
      "ws": 6130,
      "wer": 6131,
      "war": 6132,
      "wid": 6133,
      "wood": 6134,
      "wich": 6135,
      "wag": 6136,
      "wave": 6137,
      "wip": 6138,
      "wife": 6139,
      "wise": 6140,
      "wai": 6141,
      "xand": 6142,
      "xican": 6143,
      "xha": 6144,
      "xiety": 6145,
      "yo": 6146,
      "yee": 6147,
      "ype": 6148,
      "yearn": 6149,
      "ygot": 6150,
      "ypog": 6151,
      "zas": 6152,
      "zen": 6153,
      "zes": 6154,
      "zation": 6155,
      "zest": 6156,
      "zone": 6157,
      "zake": 6158,
      "zac": 6159,
      "âĦ": 6160,
      "Ġ#": 6161,
      "Ġ*": 6162,
      "Ġ0": 6163,
      "Ġx": 6164,
      "Ġer": 6165,
      "Ġing": 6166,
      "Ġ--": 6167,
      "Ġvers": 6168,
      "Ġqs": 6169,
      "Ġtd": 6170,
      "Ġtou": 6171,
      "Ġton": 6172,
      "Ġtar": 6173,
      "Ġtal": 6174,
      "Ġtent": 6175,
      "Ġtill": 6176,
      "Ġtee": 6177,
      "Ġtrou": 6178,
      "Ġtort": 6179,
      "Ġtast": 6180,
      "Ġtick": 6181,
      "Ġtire": 6182,
      "Ġtwas": 6183,
      "Ġtired": 6184,
      "Ġtub": 6185,
      "Ġtours": 6186,
      "Ġtons": 6187,
      "Ġtense": 6188,
      "Ġtables": 6189,
      "Ġtaped": 6190,
      "Ġtba": 6191,
      "heh": 6192,
      "hes": 6193,
      "heres": 6194,
      "Ġale": 6195,
      "Ġaut": 6196,
      "Ġaust": 6197,
      "Ġack": 6198,
      "Ġamb": 6199,
      "Ġawas": 6200,
      "Ġahh": 6201,
      "Ġaustr": 6202,
      "Ġaimed": 6203,
      "iny": 6204,
      "ined": 6205,
      "inic": 6206,
      "inform": 6207,
      "incl": 6208,
      "inary": 6209,
      "inful": 6210,
      "ints": 6211,
      "inations": 6212,
      "inna": 6213,
      "inism": 6214,
      "incor": 6215,
      "ineage": 6216,
      "incred": 6217,
      "Ġwan": 6218,
      "Ġwing": 6219,
      "Ġwil": 6220,
      "Ġwang": 6221,
      "Ġwished": 6222,
      "Ġwise": 6223,
      "Ġwalls": 6224,
      "Ġwired": 6225,
      "Ġwides": 6226,
      "Ġwoke": 6227,
      "Ġwalm": 6228,
      "Ġwinner": 6229,
      "Ġwolves": 6230,
      "rel": 6231,
      "rees": 6232,
      "reot": 6233,
      "reating": 6234,
      "represent": 6235,
      "rebr": 6236,
      "reper": 6237,
      "review": 6238,
      "remembered": 6239,
      "recent": 6240,
      "refund": 6241,
      "rewind": 6242,
      "referred": 6243,
      "research": 6244,
      "removed": 6245,
      "repetition": 6246,
      "anch": 6247,
      "anim": 6248,
      "ania": 6249,
      "anced": 6250,
      "analy": 6251,
      "ancy": 6252,
      "anning": 6253,
      "anches": 6254,
      "ancisc": 6255,
      "annape": 6256,
      "Ġsj": 6257,
      "Ġsand": 6258,
      "Ġsop": 6259,
      "Ġsill": 6260,
      "Ġsear": 6261,
      "Ġsqu": 6262,
      "Ġsalk": 6263,
      "Ġsher": 6264,
      "Ġsake": 6265,
      "Ġsult": 6266,
      "Ġswell": 6267,
      "Ġsci": 6268,
      "Ġsue": 6269,
      "Ġssp": 6270,
      "Ġsix": 6271,
      "Ġsides": 6272,
      "Ġsites": 6273,
      "Ġsaint": 6274,
      "Ġsara": 6275,
      "Ġsubs": 6276,
      "Ġsinner": 6277,
      "Ġsuf": 6278,
      "Ġsasu": 6279,
      "Ġsibling": 6280,
      "Ġssn": 6281,
      "Ġsuff": 6282,
      "Ġsinful": 6283,
      "Ġthee": 6284,
      "Ġtheis": 6285,
      "Ġtheory": 6286,
      "Ġtheatr": 6287,
      "Ġie": 6288,
      "Ġil": 6289,
      "Ġip": 6290,
      "Ġiq": 6291,
      "Ġiso": 6292,
      "Ġice": 6293,
      "Ġicon": 6294,
      "Ġiep": 6295,
      "atally": 6296,
      "atim": 6297,
      "atter": 6298,
      "aturing": 6299,
      "atization": 6300,
      "atism": 6301,
      "atially": 6302,
      "atulated": 6303,
      "atoes": 6304,
      "attention": 6305,
      "outhing": 6306,
      "onst": 6307,
      "onally": 6308,
      "onde": 6309,
      "onances": 6310,
      "onologically": 6311,
      "onouns": 6312,
      "ero": 6313,
      "erce": 6314,
      "erate": 6315,
      "erry": 6316,
      "erved": 6317,
      "erful": 6318,
      "erations": 6319,
      "erature": 6320,
      "ertil": 6321,
      "erfect": 6322,
      "erstein": 6323,
      "Ġthor": 6324,
      "Ġthous": 6325,
      "Ġthai": 6326,
      "Ġthrow": 6327,
      "order": 6328,
      "ority": 6329,
      "orary": 6330,
      "ording": 6331,
      "orically": 6332,
      "orph": 6333,
      "orrible": 6334,
      "inge": 6335,
      "ingly": 6336,
      "ingdeaf": 6337,
      "Ġcat": 6338,
      "Ġcus": 6339,
      "Ġcind": 6340,
      "Ġcust": 6341,
      "Ġcart": 6342,
      "Ġcure": 6343,
      "Ġcof": 6344,
      "Ġcoh": 6345,
      "Ġcog": 6346,
      "Ġcase": 6347,
      "Ġcough": 6348,
      "Ġcours": 6349,
      "Ġcried": 6350,
      "Ġcued": 6351,
      "Ġcogn": 6352,
      "Ġcert": 6353,
      "Ġped": 6354,
      "Ġpea": 6355,
      "Ġpet": 6356,
      "Ġpig": 6357,
      "Ġpeop": 6358,
      "Ġpren": 6359,
      "Ġpard": 6360,
      "Ġpool": 6361,
      "Ġpred": 6362,
      "Ġpiz": 6363,
      "Ġpages": 6364,
      "Ġpix": 6365,
      "Ġpugh": 6366,
      "Ġpitts": 6367,
      "Ġpierson": 6368,
      "Ġpounding": 6369,
      "Ġpinna": 6370,
      "Ġmm": 6371,
      "Ġmea": 6372,
      "Ġmall": 6373,
      "Ġmun": 6374,
      "Ġmad": 6375,
      "Ġmur": 6376,
      "Ġmult": 6377,
      "Ġmap": 6378,
      "Ġmmm": 6379,
      "Ġmaps": 6380,
      "Ġmsd": 6381,
      "Ġmask": 6382,
      "Ġmrc": 6383,
      "Ġmitc": 6384,
      "Ġmjs": 6385,
      "Ġmouthing": 6386,
      "Ġmorph": 6387,
      "llo": 6388,
      "llig": 6389,
      "llence": 6390,
      "llables": 6391,
      "Ġden": 6392,
      "Ġdar": 6393,
      "Ġdal": 6394,
      "Ġdig": 6395,
      "Ġdir": 6396,
      "Ġdul": 6397,
      "Ġdare": 6398,
      "Ġdave": 6399,
      "Ġdip": 6400,
      "Ġdru": 6401,
      "Ġdues": 6402,
      "Ġdict": 6403,
      "Ġdrove": 6404,
      "Ġdressed": 6405,
      "Ġdrought": 6406,
      "Ġdistinctly": 6407,
      "Ġdiver": 6408,
      "Ġdwind": 6409,
      "Ġdinner": 6410,
      "Ġdiction": 6411,
      "Ġdcara": 6412,
      "Ġduo": 6413,
      "anda": 6414,
      "anding": 6415,
      "andise": 6416,
      "itus": 6417,
      "itate": 6418,
      "iture": 6419,
      "itam": 6420,
      "itations": 6421,
      "itself": 6422,
      "itial": 6423,
      "itics": 6424,
      "itments": 6425,
      "itivity": 6426,
      "itney": 6427,
      "asy": 6428,
      "aser": 6429,
      "aside": 6430,
      "asleep": 6431,
      "asked": 6432,
      "ashes": 6433,
      "ene": 6434,
      "enched": 6435,
      "enger": 6436,
      "encer": 6437,
      "enfr": 6438,
      "england": 6439,
      "ength": 6440,
      "ennif": 6441,
      "ennial": 6442,
      "Ġtow": 6443,
      "Ġtoss": 6444,
      "Ġtowns": 6445,
      "edge": 6446,
      "ediate": 6447,
      "Ġfill": 6448,
      "Ġfir": 6449,
      "Ġfro": 6450,
      "Ġful": 6451,
      "Ġfist": 6452,
      "Ġfang": 6453,
      "Ġfake": 6454,
      "Ġfag": 6455,
      "Ġfli": 6456,
      "Ġfade": 6457,
      "Ġfired": 6458,
      "Ġfreed": 6459,
      "Ġfrem": 6460,
      "Ġfingers": 6461,
      "Ġfilled": 6462,
      "Ġfash": 6463,
      "Ġfirm": 6464,
      "Ġfancy": 6465,
      "Ġfertil": 6466,
      "Ġbom": 6467,
      "Ġbout": 6468,
      "Ġbla": 6469,
      "Ġbure": 6470,
      "Ġbother": 6471,
      "Ġbeach": 6472,
      "Ġbible": 6473,
      "Ġbath": 6474,
      "Ġbats": 6475,
      "Ġbund": 6476,
      "Ġbond": 6477,
      "Ġbah": 6478,
      "Ġbonding": 6479,
      "Ġburs": 6480,
      "Ġbache": 6481,
      "Ġbesides": 6482,
      "Ġbooth": 6483,
      "Ġbacon": 6484,
      "Ġhat": 6485,
      "Ġhar": 6486,
      "Ġhate": 6487,
      "Ġhour": 6488,
      "Ġhud": 6489,
      "Ġhatch": 6490,
      "Ġhomet": 6491,
      "Ġhins": 6492,
      "Ġhits": 6493,
      "Ġhoff": 6494,
      "Ġhund": 6495,
      "Ġhumb": 6496,
      "Ġhiding": 6497,
      "Ġhires": 6498,
      "Ġhipp": 6499,
      "Ġhypog": 6500,
      "Ġhorrible": 6501,
      "isan": 6502,
      "isor": 6503,
      "ises": 6504,
      "isic": 6505,
      "isol": 6506,
      "isite": 6507,
      "isms": 6508,
      "isions": 6509,
      "isons": 6510,
      "Ġleaf": 6511,
      "Ġlind": 6512,
      "Ġlab": 6513,
      "Ġlem": 6514,
      "Ġloh": 6515,
      "Ġlos": 6516,
      "Ġluc": 6517,
      "Ġlazy": 6518,
      "Ġluis": 6519,
      "Ġlaine": 6520,
      "Ġlacked": 6521,
      "Ġlumin": 6522,
      "Ġlineage": 6523,
      "Ġlength": 6524,
      "yout": 6525,
      "Ġobl": 6526,
      "Ġobs": 6527,
      "Ġopt": 6528,
      "Ġoven": 6529,
      "Ġoption": 6530,
      "Ġodsp": 6531,
      "Ġoscars": 6532,
      "Ġozone": 6533,
      "them": 6534,
      "thew": 6535,
      "theater": 6536,
      "aries": 6537,
      "around": 6538,
      "arizona": 6539,
      "Ġanom": 6540,
      "Ġanth": 6541,
      "Ġanal": 6542,
      "Ġangl": 6543,
      "Ġanne": 6544,
      "Ġansel": 6545,
      "Ġanti": 6546,
      "Ġankles": 6547,
      "Ġanswe": 6548,
      "Ġanticip": 6549,
      "Ġanxiety": 6550,
      "Ġinn": 6551,
      "Ġindu": 6552,
      "Ġinten": 6553,
      "Ġinbo": 6554,
      "Ġinsure": 6555,
      "Ġinsur": 6556,
      "Ġinaccess": 6557,
      "Ġinext": 6558,
      "Ġinsult": 6559,
      "Ġinitial": 6560,
      "oww": 6561,
      "owsk": 6562,
      "veal": 6563,
      "veill": 6564,
      "velyn": 6565,
      "omers": 6566,
      "omated": 6567,
      "Ġwasil": 6568,
      "Ġwaste": 6569,
      "Ġwashed": 6570,
      "lez": 6571,
      "leen": 6572,
      "leave": 6573,
      "leased": 6574,
      "lexical": 6575,
      "Ġnto": 6576,
      "Ġnos": 6577,
      "Ġnied": 6578,
      "Ġnapp": 6579,
      "Ġnorms": 6580,
      "Ġnails": 6581,
      "Ġnyle": 6582,
      "Ġnouns": 6583,
      "Ġgill": 6584,
      "Ġgla": 6585,
      "Ġgear": 6586,
      "Ġgap": 6587,
      "Ġgree": 6588,
      "Ġgivers": 6589,
      "Ġgross": 6590,
      "Ġgifts": 6591,
      "Ġgames": 6592,
      "Ġgift": 6593,
      "Ġgassed": 6594,
      "Ġgauge": 6595,
      "Ġgho": 6596,
      "Ġglowing": 6597,
      "usman": 6598,
      "ths": 6599,
      "thus": 6600,
      "thly": 6601,
      "thread": 6602,
      "thought": 6603,
      "thwhile": 6604,
      "thache": 6605,
      "thnic": 6606,
      "Ġitaly": 6607,
      "eak": 6608,
      "Ġandro": 6609,
      "Ġhack": 6610,
      "Ġhamil": 6611,
      "Ġhawj": 6612,
      "Ġhabits": 6613,
      "Ġhawai": 6614,
      "Ġhausman": 6615,
      "icing": 6616,
      "icide": 6617,
      "icher": 6618,
      "icult": 6619,
      "icts": 6620,
      "icating": 6621,
      "iceable": 6622,
      "iciency": 6623,
      "alo": 6624,
      "alis": 6625,
      "alact": 6626,
      "alian": 6627,
      "alph": 6628,
      "alify": 6629,
      "aluating": 6630,
      "Ġwei": 6631,
      "Ġweigh": 6632,
      "Ġweathered": 6633,
      "ionally": 6634,
      "ete": 6635,
      "eters": 6636,
      "eties": 6637,
      "eteria": 6638,
      "otches": 6639,
      "Ġrex": 6640,
      "Ġreci": 6641,
      "Ġrend": 6642,
      "Ġreference": 6643,
      "Ġredu": 6644,
      "Ġremin": 6645,
      "Ġredisc": 6646,
      "Ġredd": 6647,
      "Ġrecip": 6648,
      "Ġreferred": 6649,
      "Ġreached": 6650,
      "Ġrefere": 6651,
      "Ġrearr": 6652,
      "Ġrevol": 6653,
      "Ġreorder": 6654,
      "Ġreveal": 6655,
      "Ġreleased": 6656,
      "Ġeld": 6657,
      "Ġech": 6658,
      "Ġeyes": 6659,
      "Ġegot": 6660,
      "Ġevelyn": 6661,
      "Ġethnic": 6662,
      "igated": 6663,
      "igms": 6664,
      "igued": 6665,
      "igma": 6666,
      "iguities": 6667,
      "uts": 6668,
      "utive": 6669,
      "utions": 6670,
      "Ġbee": 6671,
      "Ġbeth": 6672,
      "Ġbeatr": 6673,
      "Ġbeats": 6674,
      "Ġbegun": 6675,
      "ldc": 6676,
      "lds": 6677,
      "ldom": 6678,
      "ldier": 6679,
      "ldfish": 6680,
      "Ġheather": 6681,
      "Ġhelen": 6682,
      "Ġheredit": 6683,
      "Ġhelic": 6684,
      "Ġheels": 6685,
      "Ġhence": 6686,
      "Ġhello": 6687,
      "idge": 6688,
      "idly": 6689,
      "iders": 6690,
      "soever": 6691,
      "soldier": 6692,
      "Ġstar": 6693,
      "Ġstall": 6694,
      "Ġstir": 6695,
      "Ġstren": 6696,
      "Ġstaring": 6697,
      "Ġstol": 6698,
      "Ġstated": 6699,
      "Ġstood": 6700,
      "Ġstair": 6701,
      "Ġstalls": 6702,
      "Ġstars": 6703,
      "Ġstole": 6704,
      "Ġstigm": 6705,
      "Ġstock": 6706,
      "Ġstones": 6707,
      "Ġsticking": 6708,
      "Ġstefa": 6709,
      "Ġstove": 6710,
      "Ġstalact": 6711,
      "Ġstigma": 6712,
      "ented": 6713,
      "entine": 6714,
      "entire": 6715,
      "entia": 6716,
      "entially": 6717,
      "ctly": 6718,
      "ctive": 6719,
      "ctural": 6720,
      "sey": 6721,
      "seat": 6722,
      "sees": 6723,
      "sequ": 6724,
      "section": 6725,
      "several": 6726,
      "seeds": 6727,
      "select": 6728,
      "selection": 6729,
      "september": 6730,
      "secut": 6731,
      "Ġforbidden": 6732,
      "Ġonward": 6733,
      "Ġonuses": 6734,
      "ching": 6735,
      "choice": 6736,
      "chuck": 6737,
      "charter": 6738,
      "chias": 6739,
      "chandise": 6740,
      "verbs": 6741,
      "opters": 6742,
      "Ġmeat": 6743,
      "Ġmeld": 6744,
      "Ġmerely": 6745,
      "Ġmemory": 6746,
      "Ġks": 6747,
      "Ġkin": 6748,
      "Ġkill": 6749,
      "Ġkil": 6750,
      "Ġkell": 6751,
      "Ġkach": 6752,
      "Ġklim": 6753,
      "Ġkitc": 6754,
      "Ġkannape": 6755,
      "illas": 6756,
      "illip": 6757,
      "illness": 6758,
      "illover": 6759,
      "illery": 6760,
      "nowad": 6761,
      "nowled": 6762,
      "Ġwhoo": 6763,
      "Ġwhitney": 6764,
      "mec": 6765,
      "meet": 6766,
      "means": 6767,
      "members": 6768,
      "meets": 6769,
      "mels": 6770,
      "mexican": 6771,
      "oof": 6772,
      "oored": 6773,
      "oosing": 6774,
      "Ġaston": 6775,
      "Ġastr": 6776,
      "weathered": 6777,
      "sts": 6778,
      "stic": 6779,
      "stay": 6780,
      "stren": 6781,
      "stood": 6782,
      "stick": 6783,
      "studi": 6784,
      "story": 6785,
      "stuck": 6786,
      "stars": 6787,
      "string": 6788,
      "stores": 6789,
      "stract": 6790,
      "stupid": 6791,
      "stefa": 6792,
      "strong": 6793,
      "streper": 6794,
      "standing": 6795,
      "outine": 6796,
      "butterfly": 6797,
      "eem": 6798,
      "eeze": 6799,
      "ifies": 6800,
      "ifact": 6801,
      "ifiers": 6802,
      "ificate": 6803,
      "iforms": 6804,
      "une": 6805,
      "unk": 6806,
      "unsure": 6807,
      "unless": 6808,
      "unfortunate": 6809,
      "uniforms": 6810,
      "gement": 6811,
      "geons": 6812,
      "geographic": 6813,
      "antaneous": 6814,
      "irk": 6815,
      "irical": 6816,
      "irginia": 6817,
      "irping": 6818,
      "Ġpose": 6819,
      "Ġpock": 6820,
      "Ġpolling": 6821,
      "Ġpoints": 6822,
      "ceive": 6823,
      "celebr": 6824,
      "cemia": 6825,
      "cepting": 6826,
      "cellence": 6827,
      "Ġsignage": 6828,
      "Ġsignature": 6829,
      "Ġsignific": 6830,
      "ado": 6831,
      "ades": 6832,
      "adow": 6833,
      "adol": 6834,
      "adults": 6835,
      "adhoc": 6836,
      "adopted": 6837,
      "adox": 6838,
      "aduated": 6839,
      "advantage": 6840,
      "lys": 6841,
      "lycemia": 6842,
      "Ġjour": 6843,
      "Ġjive": 6844,
      "Ġjose": 6845,
      "Ġjok": 6846,
      "Ġjap": 6847,
      "Ġjason": 6848,
      "Ġjacked": 6849,
      "Ġjewelry": 6850,
      "Ġjerry": 6851,
      "Ġjennif": 6852,
      "fork": 6853,
      "forth": 6854,
      "forts": 6855,
      "forced": 6856,
      "forget": 6857,
      "Ġmold": 6858,
      "Ġmover": 6859,
      "Ġmoves": 6860,
      "Ġmoss": 6861,
      "Ġmoines": 6862,
      "Ġmoaning": 6863,
      "Ġmobile": 6864,
      "Ġmodify": 6865,
      "Ġarena": 6866,
      "roll": 6867,
      "roved": 6868,
      "rober": 6869,
      "rolling": 6870,
      "rochester": 6871,
      "ersmith": 6872,
      "inded": 6873,
      "indeed": 6874,
      "thern": 6875,
      "Ġneo": 6876,
      "Ġneil": 6877,
      "Ġnels": 6878,
      "Ġnelson": 6879,
      "Ġexqu": 6880,
      "Ġexclud": 6881,
      "Ġextr": 6882,
      "Ġexhib": 6883,
      "Ġexerc": 6884,
      "Ġexcellence": 6885,
      "Ġdog": 6886,
      "toon": 6887,
      "toed": 6888,
      "told": 6889,
      "together": 6890,
      "todd": 6891,
      "tody": 6892,
      "Ġabe": 6893,
      "Ġabused": 6894,
      "Ġabilities": 6895,
      "Ġabnorm": 6896,
      "Ġabsent": 6897,
      "Ġabstract": 6898,
      "Ġusa": 6899,
      "Ġuser": 6900,
      "Ġusage": 6901,
      "Ġusssa": 6902,
      "mpted": 6903,
      "laine": 6904,
      "laps": 6905,
      "laugh": 6906,
      "lahom": 6907,
      "Ġalliter": 6908,
      "Ġalleg": 6909,
      "Ġlip": 6910,
      "Ġliking": 6911,
      "Ġliabil": 6912,
      "Ġmyers": 6913,
      "Ġmyri": 6914,
      "Ġmyrna": 6915,
      "Ġmyths": 6916,
      "whose": 6917,
      "white": 6918,
      "whipping": 6919,
      "---": 6920,
      "--[": 6921,
      "ulpt": 6922,
      "...?": 6923,
      "upon": 6924,
      "update": 6925,
      "rywide": 6926,
      "Ġworse": 6927,
      "Ġwording": 6928,
      "Ġworries": 6929,
      "Ġworthwhile": 6930,
      "Ġnoticing": 6931,
      "istles": 6932,
      "istrators": 6933,
      "Ġvp": 6934,
      "Ġvan": 6935,
      "Ġvat": 6936,
      "Ġvice": 6937,
      "Ġvary": 6938,
      "Ġvib": 6939,
      "Ġvoge": 6940,
      "Ġvitam": 6941,
      "Ġvirginia": 6942,
      "been": 6943,
      "become": 6944,
      "beyond": 6945,
      "becomes": 6946,
      "Ġshy": 6947,
      "Ġshot": 6948,
      "Ġshud": 6949,
      "Ġshange": 6950,
      "Ġshampoo": 6951,
      "Ġshipping": 6952,
      "Ġshots": 6953,
      "Ġshift": 6954,
      "Ġshiny": 6955,
      "Ġshirk": 6956,
      "Ġshadow": 6957,
      "ource": 6958,
      "ouraged": 6959,
      "ourmen": 6960,
      "ears": 6961,
      "earlier": 6962,
      "cky": 6963,
      "cked": 6964,
      "uded": 6965,
      "udge": 6966,
      "Ġthinkers": 6967,
      "Ġthinkself": 6968,
      "Ġcomfort": 6969,
      "Ġcomedy": 6970,
      "Ġcombine": 6971,
      "Ġran": 6972,
      "Ġride": 6973,
      "Ġrare": 6974,
      "Ġrap": 6975,
      "Ġrange": 6976,
      "Ġrib": 6977,
      "Ġrise": 6978,
      "Ġrages": 6979,
      "Ġrays": 6980,
      "Ġraped": 6981,
      "Ġraging": 6982,
      "Ġrumin": 6983,
      "Ġruin": 6984,
      "Ġricher": 6985,
      "Ġralph": 6986,
      "Ġroutine": 6987,
      "arters": 6988,
      "artment": 6989,
      "Ġwanting": 6990,
      "ilts": 6991,
      "ilize": 6992,
      "ilton": 6993,
      "iliar": 6994,
      "imag": 6995,
      "imile": 6996,
      "imarily": 6997,
      "imalist": 6998,
      "Ġgosh": 6999,
      "Ġgoldfish": 7000,
      "teries": 7001,
      "terness": 7002,
      "terrible": 7003,
      "Ġ\"'": 7004,
      "Ġenvision": 7005,
      "Ġenhan": 7006,
      "Ġenuf": 7007,
      "Ġenhance": 7008,
      "Ġenrolling": 7009,
      "anger": 7010,
      "urie": 7011,
      "urday": 7012,
      "urlin": 7013,
      "urbed": 7014,
      "uriated": 7015,
      "abet": 7016,
      "Ġsoil": 7017,
      "Ġsoft": 7018,
      "Ġsorely": 7019,
      "Ġyay": 7020,
      "Ġyank": 7021,
      "Ġwhatsoever": 7022,
      "Ġalan": 7023,
      "Ġalright": 7024,
      "Ġalph": 7025,
      "Ġalarm": 7026,
      "Ġalumn": 7027,
      "Ġalcoh": 7028,
      "Ġjustice": 7029,
      "Ġjustify": 7030,
      "amework": 7031,
      "essay": 7032,
      "essors": 7033,
      "feine": 7034,
      "felt": 7035,
      "Ġchin": 7036,
      "Ġchamp": 7037,
      "Ġchick": 7038,
      "Ġchaz": 7039,
      "Ġchances": 7040,
      "Ġchief": 7041,
      "Ġchronic": 7042,
      "Ġchoosing": 7043,
      "Ġchirping": 7044,
      "Ġconcl": 7045,
      "Ġconclud": 7046,
      "Ġcongr": 7047,
      "Ġcondo": 7048,
      "Ġconven": 7049,
      "Ġconcent": 7050,
      "Ġconcor": 7051,
      "Ġconferences": 7052,
      "Ġconstant": 7053,
      "Ġconceived": 7054,
      "Ġcondensed": 7055,
      "Ġconsecut": 7056,
      "quire": 7057,
      "estment": 7058,
      "estone": 7059,
      "estered": 7060,
      "estyle": 7061,
      "arded": 7062,
      "ardians": 7063,
      "emotion": 7064,
      "Ġdonations": 7065,
      "thered": 7066,
      "Ġprose": 7067,
      "Ġproced": 7068,
      "Ġprosp": 7069,
      "Ġprosa": 7070,
      "Ġpross": 7071,
      "Ġproduc": 7072,
      "Ġprocla": 7073,
      "Ġproducing": 7074,
      "Ġprohib": 7075,
      "Ġprogressed": 7076,
      "Ġproverbs": 7077,
      "Ġaslis": 7078,
      "dering": 7079,
      "Ġupper": 7080,
      "Ġupfr": 7081,
      "ishment": 7082,
      "ols": 7083,
      "olis": 7084,
      "oliver": 7085,
      "result": 7086,
      "reshing": 7087,
      "resources": 7088,
      "residence": 7089,
      "orted": 7090,
      "ortance": 7091,
      "care": 7092,
      "cave": 7093,
      "cape": 7094,
      "capt": 7095,
      "amy": 7096,
      "amion": 7097,
      "ament": 7098,
      "amous": 7099,
      "amaz": 7100,
      "amigo": 7101,
      "amadol": 7102,
      "ainers": 7103,
      "Ġpoetics": 7104,
      "Ġtract": 7105,
      "Ġtriv": 7106,
      "Ġtrib": 7107,
      "Ġtruck": 7108,
      "Ġtryout": 7109,
      "Ġtrunk": 7110,
      "Ġtrudge": 7111,
      "Ġtramadol": 7112,
      "Ġwhore": 7113,
      "Ġcommuted": 7114,
      "Ġcommedia": 7115,
      "Ġcommerce": 7116,
      "Ġcommitments": 7117,
      "answer": 7118,
      "âĢ¦": 7119,
      "âĢľ": 7120,
      "Ġseed": 7121,
      "Ġsecur": 7122,
      "Ġseldom": 7123,
      "Ġwraps": 7124,
      "Ġyearly": 7125,
      "Ġyearning": 7126,
      "Ġyours": 7127,
      "former": 7128,
      "formal": 7129,
      "Ġplot": 7130,
      "Ġplastic": 7131,
      "Ġpledge": 7132,
      "hereos": 7133,
      "Ġunlike": 7134,
      "Ġunable": 7135,
      "Ġunac": 7136,
      "Ġunknow": 7137,
      "Ġunfam": 7138,
      "Ġuncertain": 7139,
      "Ġunbel": 7140,
      "Ġunfortunate": 7141,
      "Ġunequal": 7142,
      "Ġunhappy": 7143,
      "Ġunanim": 7144,
      "Ġ22": 7145,
      "Ġ23": 7146,
      "glo": 7147,
      "glas": 7148,
      "oftentimes": 7149,
      "ofalo": 7150,
      "enditure": 7151,
      "Ġoutwards": 7152,
      "Ġoutcomes": 7153,
      "Ġoutdated": 7154,
      "Ġoutstanding": 7155,
      "Ġdefl": 7156,
      "Ġdept": 7157,
      "Ġdelight": 7158,
      "Ġdelap": 7159,
      "Ġdeferred": 7160,
      "Ġdelicate": 7161,
      "Ġdefense": 7162,
      "Ġexplos": 7163,
      "Ġexplan": 7164,
      "Ġexpenditure": 7165,
      "iep": 7166,
      "ieved": 7167,
      "atedly": 7168,
      "Ġadjust": 7169,
      "Ġadmit": 7170,
      "Ġadulation": 7171,
      "Ġadmir": 7172,
      "Ġadeg": 7173,
      "Ġadheres": 7174,
      "actly": 7175,
      "actual": 7176,
      "ample": 7177,
      "Ġhowls": 7178,
      "redient": 7179,
      "reditation": 7180,
      "Ġpertain": 7181,
      "Ġpervious": 7182,
      "Ġpertin": 7183,
      "Ġpercol": 7184,
      "Ġperceive": 7185,
      "Ġmanagers": 7186,
      "Ġmanacl": 7187,
      "ivated": 7188,
      "izant": 7189,
      "ounting": 7190,
      "Ġsack": 7191,
      "Ġsafe": 7192,
      "Ġsaved": 7193,
      "Ġsaunt": 7194,
      "Ġsaxha": 7195,
      "asses": 7196,
      "osing": 7197,
      "osit": 7198,
      "osity": 7199,
      "osition": 7200,
      "ultaneous": 7201,
      "oody": 7202,
      "Ġschooled": 7203,
      "Ġclown": 7204,
      "Ġclip": 7205,
      "Ġclique": 7206,
      "Ġclerc": 7207,
      "Ġclothe": 7208,
      "Ġclinic": 7209,
      "Ġclashes": 7210,
      "Ġclenched": 7211,
      "ucci": 7212,
      "ucial": 7213,
      "ucinations": 7214,
      "Ġshell": 7215,
      "Ġplayful": 7216,
      "Ġplayground": 7217,
      "Ġplaybook": 7218,
      "Ġplayfulness": 7219,
      "oking": 7220,
      "Ġquo": 7221,
      "Ġquote": 7222,
      "Ġquaint": 7223,
      "Ġquarter": 7224,
      "Ġqualify": 7225,
      "Ġquilts": 7226,
      "ollary": 7227,
      "Ġtalks": 7228,
      "Ġdiseas": 7229,
      "Ġdispar": 7230,
      "Ġdisord": 7231,
      "Ġdisband": 7232,
      "Ġdisease": 7233,
      "Ġdisgust": 7234,
      "Ġdisenfr": 7235,
      "Ġaccur": 7236,
      "Ġaccepting": 7237,
      "Ġacquire": 7238,
      "Ġamanda": 7239,
      "Ġspent": 7240,
      "Ġspun": 7241,
      "Ġsport": 7242,
      "Ġspans": 7243,
      "Ġspend": 7244,
      "Ġspank": 7245,
      "Ġspices": 7246,
      "Ġspons": 7247,
      "Ġspark": 7248,
      "Ġsphin": 7249,
      "Ġspatially": 7250,
      "Ġspencer": 7251,
      "Ġspillover": 7252,
      "Ġspurlin": 7253,
      "Ġspamion": 7254,
      "Ġimpression": 7255,
      "Ġimplement": 7256,
      "Ġimproving": 7257,
      "Ġimpressive": 7258,
      "Ġimproved": 7259,
      "Ġimportance": 7260,
      "Ġfella": 7261,
      "Ġfeaturing": 7262,
      "Ġlevel": 7263,
      "april": 7264,
      "apolis": 7265,
      "aposition": 7266,
      "rix": 7267,
      "rients": 7268,
      "agate": 7269,
      "agency": 7270,
      "agogy": 7271,
      "agraph": 7272,
      "agisic": 7273,
      "Ġpartner": 7274,
      "Ġpartially": 7275,
      "Ġanytime": 7276,
      "Ġnobl": 7277,
      "Ġstorm": 7278,
      "Ġstorms": 7279,
      "closed": 7280,
      "clinto": 7281,
      "teen": 7282,
      "tely": 7283,
      "tered": 7284,
      "text": 7285,
      "techn": 7286,
      "teenagers": 7287,
      "texas": 7288,
      "Ġhasn": 7289,
      "otherwise": 7290,
      "ousa": 7291,
      "ously": 7292,
      "Ġevil": 7293,
      "Ġevolve": 7294,
      "Ġeviction": 7295,
      "Ġevaluating": 7296,
      "wocky": 7297,
      "Ġundergoing": 7298,
      "Ġunderwater": 7299,
      "Ġundermined": 7300,
      "Ġundertaken": 7301,
      "Ġinterference": 7302,
      "Ġinterven": 7303,
      "Ġinterchang": 7304,
      "Ġinterrup": 7305,
      "Ġintervention": 7306,
      "Ġshowers": 7307,
      "Ġshowcas": 7308,
      "xtaposition": 7309,
      "Ġhandled": 7310,
      "cia": 7311,
      "cious": 7312,
      "Ġmayor": 7313,
      "Ġgrin": 7314,
      "Ġgrab": 7315,
      "Ġgrade": 7316,
      "Ġgraph": 7317,
      "Ġgrays": 7318,
      "Ġgraphic": 7319,
      "Ġgrasses": 7320,
      "whenever": 7321,
      "Ġbillo": 7322,
      "Ġstartled": 7323,
      "ummm": 7324,
      "umming": 7325,
      "umulated": 7326,
      "umatism": 7327,
      "otely": 7328,
      "Ġ2000": 7329,
      "Ġ2050": 7330,
      "ocols": 7331,
      "owning": 7332,
      "deafness": 7333,
      "Ġhappiness": 7334,
      "ankets": 7335,
      "Ġbacked": 7336,
      "Ġbackward": 7337,
      "Ġbackwards": 7338,
      "Ġstillwag": 7339,
      "Ġcontest": 7340,
      "Ġcontrast": 7341,
      "Ġcontainers": 7342,
      "Ġnewton": 7343,
      "cester": 7344,
      "Ġstudied": 7345,
      "Ġperforms": 7346,
      "Ġperformers": 7347,
      "Ġhelpful": 7348,
      "Ġgrouping": 7349,
      "Ġarm": 7350,
      "Ġarmy": 7351,
      "Ġarms": 7352,
      "Ġarise": 7353,
      "Ġarbit": 7354,
      "Ġargue": 7355,
      "Ġarizona": 7356,
      "Ġarbon": 7357,
      "cessarily": 7358,
      "whoever": 7359,
      "nell": 7360,
      "never": 7361,
      "neli": 7362,
      "nelson": 7363,
      "necessarily": 7364,
      "reech": 7365,
      "Ġherman": 7366,
      "Ġherself": 7367,
      "Ġhersey": 7368,
      "Ġ325": 7369,
      "Ġprepar": 7370,
      "Ġpregn": 7371,
      "Ġprelimin": 7372,
      "Ġprecious": 7373,
      "Ġovert": 7374,
      "Ġoverdo": 7375,
      "Ġoverhead": 7376,
      "Ġoverrid": 7377,
      "Ġoverlooked": 7378,
      "Ġoverwrite": 7379,
      "Ġoversees": 7380,
      "Ġoverlaps": 7381,
      "conference": 7382,
      "conced": 7383,
      "convers": 7384,
      "concept": 7385,
      "concer": 7386,
      "conferences": 7387,
      "consum": 7388,
      "conceived": 7389,
      "contro": 7390,
      "Ġactual": 7391,
      "Ġactress": 7392,
      "Ġprized": 7393,
      "Ġprivate": 7394,
      "Ġpronouns": 7395,
      "Ġproof": 7396,
      "Ġharder": 7397,
      "Ġunderstandable": 7398,
      "comb": 7399,
      "compar": 7400,
      "comfort": 7401,
      "comple": 7402,
      "comput": 7403,
      "comparing": 7404,
      "Ġsuperv": 7405,
      "Ġsupra": 7406,
      "Ġsuperior": 7407,
      "Ġmakeup": 7408,
      "pread": 7409,
      "pretend": 7410,
      "pretations": 7411,
      "Ġdowntown": 7412,
      "november": 7413,
      "nostic": 7414,
      "Ġgotta": 7415,
      "Ġgoodness": 7416,
      "Ġreadily": 7417,
      "Ġtransferred": 7418,
      "Ġtransportation": 7419,
      "Ġtransgend": 7420,
      "Ġcalls": 7421,
      "Ġloon": 7422,
      "Ġlocked": 7423,
      "Ġchildhood": 7424,
      "liest": 7425,
      "liking": 7426,
      "libly": 7427,
      "liament": 7428,
      "wherever": 7429,
      "Ġpaid": 7430,
      "Ġpaved": 7431,
      "Ġpacer": 7432,
      "Ġpawns": 7433,
      "Ġmabel": 7434,
      "Ġmaimed": 7435,
      "ickson": 7436,
      "Ġsensation": 7437,
      "Ġhispanic": 7438,
      "Ġstrict": 7439,
      "Ġstruck": 7440,
      "Ġstriving": 7441,
      "erialist": 7442,
      "Ġintegrated": 7443,
      "Ġintellig": 7444,
      "Ġkindred": 7445,
      "Ġpassing": 7446,
      "Ġpassion": 7447,
      "Ġpassage": 7448,
      "Ġbobbi": 7449,
      "Ġbothered": 7450,
      "wardrobe": 7451,
      "Ġwhereas": 7452,
      "Ġwhereby": 7453,
      "Ġoldest": 7454,
      "Ġdiscouraged": 7455,
      "Ġcreator": 7456,
      "Ġcreole": 7457,
      "Ġminimalist": 7458,
      "ologist": 7459,
      "create": 7460,
      "created": 7461,
      "creative": 7462,
      "creates": 7463,
      "creole": 7464,
      "notch": 7465,
      "notice": 7466,
      "noticeable": 7467,
      "Ġcultivate": 7468,
      "itionally": 7469,
      "Ġbrown": 7470,
      "Ġbrave": 7471,
      "Ġbrows": 7472,
      "Ġbraille": 7473,
      "Ġbranches": 7474,
      "Ġbristles": 7475,
      "Ġcompare": 7476,
      "Ġcomprised": 7477,
      "Ġcompete": 7478,
      "msad": 7479,
      "ully": 7480,
      "Ġsupported": 7481,
      "Ġafer": 7482,
      "Ġaffect": 7483,
      "Ġserving": 7484,
      "Ġserves": 7485,
      "Ġdayton": 7486,
      "Ġclassic": 7487,
      "Ġclassify": 7488,
      "grass": 7489,
      "growing": 7490,
      "graduated": 7491,
      "ilyn": 7492,
      "Ġinformations": 7493,
      "letting": 7494,
      "Ġstorytelling": 7495,
      "Ġokay": 7496,
      "Ġoklahom": 7497,
      "Ġresults": 7498,
      "Ġresides": 7499,
      "Ġresidence": 7500,
      "Ġresounding": 7501,
      "Ġresonances": 7502,
      "Ġresource": 7503,
      "Ġartists": 7504,
      "Ġartifact": 7505,
      "Ġeducators": 7506,
      "Ġrod": 7507,
      "Ġroll": 7508,
      "Ġroot": 7509,
      "Ġroles": 7510,
      "Ġrolling": 7511,
      "Ġroots": 7512,
      "Ġrobles": 7513,
      "Ġrobust": 7514,
      "Ġrosina": 7515,
      "Ġcoat": 7516,
      "Ġcohen": 7517,
      "Ġcoast": 7518,
      "Ġcoax": 7519,
      "Ġcoales": 7520,
      "Ġjoint": 7521,
      "rounded": 7522,
      "Ġbecausethis": 7523,
      "Ġshoulder": 7524,
      "Ġshoulders": 7525,
      "Ġ45": 7526,
      "Ġ486": 7527,
      "Ġtax": 7528,
      "Ġapprove": 7529,
      "Ġappears": 7530,
      "Ġaudiologists": 7531,
      "Ġtoothache": 7532,
      "Ġfault": 7533,
      "Ġfacs": 7534,
      "Ġinvention": 7535,
      "Ġinvolves": 7536,
      "Ġinvitations": 7537,
      "Ġoffsp": 7538,
      "Ġformat": 7539,
      "Ġformer": 7540,
      "Ġcommitted": 7541,
      "Ġweekly": 7542,
      "conditions": 7543,
      "condensed": 7544,
      "Ġgreatly": 7545,
      "fluently": 7546,
      "veland": 7547,
      "appropriate": 7548,
      "applic": 7549,
      "presents": 7550,
      "presenter": 7551,
      "presenting": 7552,
      "presented": 7553,
      "presentation": 7554,
      "presentations": 7555,
      "rub": 7556,
      "ruiting": 7557,
      "ructure": 7558,
      "shh": 7559,
      "shall": 7560,
      "shake": 7561,
      "shine": 7562,
      "ship": 7563,
      "shaped": 7564,
      "Ġmetzen": 7565,
      "Ġrealizations": 7566,
      "Ġexplains": 7567,
      "Ġtranslators": 7568,
      "berty": 7569,
      "berwocky": 7570,
      "ugi": 7571,
      "Ġinfluential": 7572,
      "Ġnuances": 7573,
      "Ġnuanced": 7574,
      "etera": 7575,
      "Ġearrings": 7576,
      "Ġearliest": 7577,
      "grams": 7578,
      "Ġresearching": 7579,
      "Ġ...?\"": 7580,
      "Ġballs": 7581,
      "aft": 7582,
      "afts": 7583,
      "afford": 7584,
      "everyday": 7585,
      "space": 7586,
      "spoon": 7587,
      "spoken": 7588,
      "spoke": 7589,
      "spirit": 7590,
      "Ġrequires": 7591,
      "Ġempty": 7592,
      "Ġempirical": 7593,
      "Ġcommissionos": 7594,
      "Ġdecides": 7595,
      "Ġdeciding": 7596,
      "Ġdecisions": 7597,
      "Ġdecades": 7598,
      "defin": 7599,
      "decip": 7600,
      "vening": 7601,
      "Ġdevelops": 7602,
      "tilization": 7603,
      "tained": 7604,
      "Ġ58": 7605,
      "ĠâĢĺ": 7606,
      "Ġpresents": 7607,
      "Ġpresentations": 7608,
      "Ġfoundation": 7609,
      "Ġowner": 7610,
      "Ġpolitics": 7611,
      "Ġproviding": 7612,
      "Ġproviders": 7613,
      "Ġtells": 7614,
      "Ġphds": 7615,
      "Ġphillip": 7616,
      "Ġguest": 7617,
      "Ġguards": 7618,
      "Ġguides": 7619,
      "Ġguilt": 7620,
      "Ġguardians": 7621,
      "Ġeasiest": 7622,
      "goals": 7623,
      "govern": 7624,
      "Ġhopeful": 7625,
      "Ġcommunicated": 7626,
      "Ġcommunications": 7627,
      "dumb": 7628,
      "ducts": 7629,
      "meritor": 7630,
      "merstein": 7631,
      "Ġtending": 7632,
      "Ġtendency": 7633,
      "reading": 7634,
      "Ġsimon": 7635,
      "Ġsimcom": 7636,
      "Ġsimultaneous": 7637,
      "Ġplacing": 7638,
      "Ġplagues": 7639,
      "Ġhousewife": 7640,
      "Ġlaughter": 7641,
      "Ġlaund": 7642,
      "Ġlauded": 7643,
      "Ġlaurie": 7644,
      "Ġoperate": 7645,
      "jewelry": 7646,
      "Ġspeaks": 7647,
      "Ġeventful": 7648,
      "Ġcontacts": 7649,
      "partial": 7650,
      "particular": 7651,
      "partisan": 7652,
      "Ġwaved": 7653,
      "Ġwaited": 7654,
      "Ġsurger": 7655,
      "Ġsurfa": 7656,
      "Ġsurvive": 7657,
      "Ġsurveill": 7658,
      "Ġsurgeons": 7659,
      "Ġcurb": 7660,
      "Ġcurtain": 7661,
      "Ġclears": 7662,
      "Ġmath": 7663,
      "Ġmatthew": 7664,
      "Ġmatrix": 7665,
      "Ġmentions": 7666,
      "Ġlonger": 7667,
      "Ġgirlfriend": 7668,
      "Ġworlds": 7669,
      "Ġworldwide": 7670,
      "Ġaccessing": 7671,
      "news": 7672,
      "type": 7673,
      "Ġtests": 7674,
      "Ġtesting": 7675,
      "Ġsmooth": 7676,
      "Ġsmoking": 7677,
      "Ġfritz": 7678,
      "Ġfrancisc": 7679,
      "Ġfringe": 7680,
      "Ġfraser": 7681,
      "Ġframework": 7682,
      "Ġasset": 7683,
      "Ġassets": 7684,
      "Ġcontinuing": 7685,
      "commedia": 7686,
      "Ġsimiles": 7687,
      "eastern": 7688,
      "wednesday": 7689,
      "Ġsyllables": 7690,
      "Ġbump": 7691,
      "Ġbubble": 7692,
      "Ġbigger": 7693,
      "Ġbiggest": 7694,
      "Ġindians": 7695,
      "Ġindigo": 7696,
      "Ġindicating": 7697,
      "Ġnightclub": 7698,
      "Ġkeeping": 7699,
      "Ġenjoying": 7700,
      "jects": 7701,
      "Ġsimilarities": 7702,
      "Ġ62": 7703,
      "Ġelement": 7704,
      "Ġelementary": 7705,
      "elin": 7706,
      "elids": 7707,
      "elchair": 7708,
      "ginsberg": 7709,
      "ibilities": 7710,
      "ibault": 7711,
      "saw": 7712,
      "Ġsetup": 7713,
      "Ġrecording": 7714,
      "Ġrecruiting": 7715,
      "Ġidentified": 7716,
      "Ġcomplex": 7717,
      "Ġcompleting": 7718,
      "Ġcomplementary": 7719,
      "worry": 7720,
      "works": 7721,
      "worlds": 7722,
      "worcester": 7723,
      "headsets": 7724,
      "Ġsky": 7725,
      "Ġskin": 7726,
      "Ġskying": 7727,
      "Ġskinny": 7728,
      "oughly": 7729,
      "Ġchecking": 7730,
      "Ġminds": 7731,
      "Ġmindful": 7732,
      "Ġmindset": 7733,
      "although": 7734,
      "Ġvoter": 7735,
      "Ġvotes": 7736,
      "Ġproficiency": 7737,
      "tonight": 7738,
      "Ġawake": 7739,
      "Ġsummit": 7740,
      "Ġmark": 7741,
      "Ġmarchers": 7742,
      "Ġmarlen": 7743,
      "Ġmaribel": 7744,
      "Ġmarilyn": 7745,
      "Ġdrat": 7746,
      "Ġdrank": 7747,
      "Ġdragisic": 7748,
      "Ġdrumming": 7749,
      "Ġdrowning": 7750,
      "Ġdraft": 7751,
      "yours": 7752,
      "Ġintend": 7753,
      "Ġintake": 7754,
      "ominately": 7755,
      "Ġreplen": 7756,
      "Ġvisually": 7757,
      "Ġ103": 7758,
      "Ġ1023": 7759,
      "Ġemploys": 7760,
      "Ġemployed": 7761,
      "Ġbelieves": 7762,
      "brow": 7763,
      "brain": 7764,
      "bragg": 7765,
      "bridge": 7766,
      "Ġwalks": 7767,
      "Ġwalkway": 7768,
      "Ġsounded": 7769,
      "Ġcaptain": 7770,
      "Ġcapital": 7771,
      "Ġparking": 7772,
      "Ġparnes": 7773,
      "Ġparks": 7774,
      "Ġparagraph": 7775,
      "Ġparliament": 7776,
      "Ġheadph": 7777,
      "seeing": 7778,
      "Ġimpacts": 7779,
      "Ġimpacting": 7780,
      "Ġimpactful": 7781,
      "cheap": 7782,
      "iently": 7783,
      "prone": 7784,
      "print": 7785,
      "primarily": 7786,
      "signed": 7787,
      "Ġtodays": 7788,
      "Ġflies": 7789,
      "Ġflowing": 7790,
      "Ġfloored": 7791,
      "Ġbits": 7792,
      "Ġbitch": 7793,
      "Ġbitches": 7794,
      "Ġbitterness": 7795,
      "Ġbodyboss": 7796,
      "Ġoppress": 7797,
      "Ġopposed": 7798,
      "Ġoppression": 7799,
      "Ġoppressing": 7800,
      "Ġoppressive": 7801,
      "Ġyouths": 7802,
      "Ġgallery": 7803,
      "Ġgalloping": 7804,
      "Ġreception": 7805,
      "Ġpointy": 7806,
      "fertilization": 7807,
      "poem": 7808,
      "point": 7809,
      "pointing": 7810,
      "Ġ900": 7811,
      "Ġ911": 7812,
      "Ġcountless": 7813,
      "Ġcountdown": 7814,
      "Ġmonson": 7815,
      "Ġmonique": 7816,
      "Ġmonoz": 7817,
      "Ġmontreal": 7818,
      "Ġmonumental": 7819,
      "Ġblur": 7820,
      "Ġblast": 7821,
      "Ġblown": 7822,
      "Ġblue": 7823,
      "Ġblunt": 7824,
      "Ġblock": 7825,
      "Ġblows": 7826,
      "Ġbloating": 7827,
      "Ġblonde": 7828,
      "Ġblotches": 7829,
      "Ġbloody": 7830,
      "Ġblankets": 7831,
      "Ġhistorically": 7832,
      "Ġlists": 7833,
      "Ġlisting": 7834,
      "Ġinstill": 7835,
      "Ġinstances": 7836,
      "Ġinstability": 7837,
      "Ġinstantaneous": 7838,
      "ceptable": 7839,
      "Ġattract": 7840,
      "ardson": 7841,
      "Ġgrades": 7842,
      "Ġgradually": 7843,
      "cannot": 7844,
      "canney": 7845,
      "ficiently": 7846,
      "german": 7847,
      "mines": 7848,
      "minnea": 7849,
      "periment": 7850,
      "wouldn": 7851,
      "Ġenters": 7852,
      "Ġentering": 7853,
      "Ġcragg": 7854,
      "Ġcruel": 7855,
      "Ġcrucial": 7856,
      "Ġcrafts": 7857,
      "Ġpublicly": 7858,
      "Ġfathers": 7859,
      "Ġleader": 7860,
      "Ġleading": 7861,
      "Ġleaves": 7862,
      "Ġleague": 7863,
      "Ġobject": 7864,
      "Ġobonding": 7865,
      "Ġobjective": 7866,
      "Ġobstreper": 7867,
      "Ġstanding": 7868,
      "Ġposter": 7869,
      "Ġposting": 7870,
      "Ġpostage": 7871,
      "Ġpostmar": 7872,
      "Ġpostnat": 7873,
      "Ġexpressive": 7874,
      "Ġparticularly": 7875,
      "Ġfunds": 7876,
      "afterwards": 7877,
      "Ġfilmic": 7878,
      "generations": 7879,
      "overall": 7880,
      "overingdeaf": 7881,
      "phonologically": 7882,
      "swan": 7883,
      "Ġestill": 7884,
      "Ġestrang": 7885,
      "Ġesteem": 7886,
      "Ġceil": 7887,
      "Ġceiling": 7888,
      "Ġcerebr": 7889,
      "Ġcars": 7890,
      "Ġcarroll": 7891,
      "Ġcartoon": 7892,
      "Ġmedication": 7893,
      "Ġmediated": 7894,
      "Ġmischie": 7895,
      "Ġmisunderstood": 7896,
      "Ġmisconcept": 7897,
      "Ġdistingu": 7898,
      "Ġdistressing": 7899,
      "Ġdistillery": 7900,
      "Ġdisturbed": 7901,
      "Ġfacts": 7902,
      "Ġfaction": 7903,
      "Ġfactions": 7904,
      "Ġfactories": 7905,
      "Ġfactional": 7906,
      "Ġfreewill": 7907,
      "Ġfreeze": 7908,
      "Ġfreezes": 7909,
      "Ġbabies": 7910,
      "Ġnationalities": 7911,
      "Ġinternship": 7912,
      "Ġliteral": 7913,
      "Ġliterally": 7914,
      "Ġliterate": 7915,
      "Ġliterary": 7916,
      "Ġsmaller": 7917,
      "Ġproblematic": 7918,
      "Ġgraduating": 7919,
      "Ġfigured": 7920,
      "haves": 7921,
      "haven": 7922,
      "hawj": 7923,
      "nedy": 7924,
      "planning": 7925,
      "parc": 7926,
      "paradox": 7927,
      "Ġsending": 7928,
      "Ġcolored": 7929,
      "Ġcolonial": 7930,
      "Ġcareer": 7931,
      "Ġcarefully": 7932,
      "Ġcaregivers": 7933,
      "Ġmustn": 7934,
      "Ġdaughter": 7935,
      "Ġdakot": 7936,
      "Ġequally": 7937,
      "Ġequality": 7938,
      "Ġequival": 7939,
      "identify": 7940,
      "solution": 7941,
      "Ġmembership": 7942,
      "Ġoralist": 7943,
      "Ġupdated": 7944,
      "Ġdepict": 7945,
      "Ġdepression": 7946,
      "Ġdepressed": 7947,
      "Ġdepressing": 7948,
      "Ġdepicts": 7949,
      "Ġdeposit": 7950,
      "Ġ1981": 7951,
      "Ġ1986": 7952,
      "Ġ1987": 7953,
      "Ġ1988": 7954,
      "commodation": 7955,
      "worker": 7956,
      "worked": 7957,
      "Ġfocuses": 7958,
      "Ġcapturing": 7959,
      "bobbi": 7960,
      "hispanic": 7961,
      "impact": 7962,
      "impossible": 7963,
      "improving": 7964,
      "imperfect": 7965,
      "imperialist": 7966,
      "Ġugh": 7967,
      "Ġukr": 7968,
      "includes": 7969,
      "Ġcorrespon": 7970,
      "Ġcorollary": 7971,
      "Ġcorneli": 7972,
      "Ġpicking": 7973,
      "Ġflawed": 7974,
      "Ġbeal": 7975,
      "Ġlessen": 7976,
      "Ġhears": 7977,
      "Ġstops": 7978,
      "Ġforwards": 7979,
      "addison": 7980,
      "additionally": 7981,
      "Ġshoot": 7982,
      "Ġshovel": 7983,
      "Ġrace": 7984,
      "Ġraising": 7985,
      "Ġtrainer": 7986,
      "Ġtrainers": 7987,
      "Ġvideotaped": 7988,
      "Ġgeneration": 7989,
      "Ġanalyzation": 7990,
      "finals": 7991,
      "plets": 7992,
      "Ġtvs": 7993,
      "Ġslide": 7994,
      "Ġslog": 7995,
      "Ġslower": 7996,
      "Ġslides": 7997,
      "Ġsorority": 7998,
      "Ġpurge": 7999,
      "Ġpurpos": 8000,
      "Ġpursued": 8001,
      "asco": 8002,
      "Ġfaribault": 8003,
      "Ġfalling": 8004,
      "iscent": 8005,
      "Ġlinkages": 8006,
      "Ġemote": 8007,
      "Ġemails": 8008,
      "struck": 8009,
      "Ġencores": 8010,
      "Ġdepartments": 8011,
      "Ġarrange": 8012,
      "Ġarrives": 8013,
      "Ġarriving": 8014,
      "Ġresulting": 8015,
      "Ġfrustration": 8016,
      "Ġregisters": 8017,
      "poetic": 8018,
      "Ġbeauty": 8019,
      "Ġcollaborate": 8020,
      "accommodation": 8021,
      "achievable": 8022,
      "daa": 8023,
      "dale": 8024,
      "david": 8025,
      "dahl": 8026,
      "probably": 8027,
      "procla": 8028,
      "provides": 8029,
      "programs": 8030,
      "products": 8031,
      "track": 8032,
      "tryouts": 8033,
      "travel": 8034,
      "tiny": 8035,
      "tley": 8036,
      "Ġveal": 8037,
      "Ġvehic": 8038,
      "Ġvetoed": 8039,
      "Ġscatter": 8040,
      "Ġscene": 8041,
      "Ġsculpt": 8042,
      "Ġscreech": 8043,
      "Ġsunshine": 8044,
      "Ġcalves": 8045,
      "Ġpresence": 8046,
      "Ġdescended": 8047,
      "Ġdesousa": 8048,
      "Ġfitness": 8049,
      "Ġbasis": 8050,
      "Ġbashed": 8051,
      "Ġbasement": 8052,
      "Ġrelay": 8053,
      "Ġrelate": 8054,
      "Ġrelative": 8055,
      "Ġrelates": 8056,
      "Ġrelating": 8057,
      "Ġrelatives": 8058,
      "Ġrelatively": 8059,
      "Ġrelieved": 8060,
      "Ġrepresents": 8061,
      "Ġrepresentatives": 8062,
      "Ġstepchildren": 8063,
      "Ġstephan": 8064,
      "Ġposition": 8065,
      "Ġpositions": 8066,
      "Ġpositivity": 8067,
      "rooms": 8068,
      "Ġconstructs": 8069,
      "Ġsecrets": 8070,
      "Ġpreferred": 8071,
      "Ġpreferable": 8072,
      "Ġrequests": 8073,
      "Ġemphasized": 8074,
      "Ġspeaker": 8075,
      "Ġspeakers": 8076,
      "Ġvarieties": 8077,
      "Ġadvocating": 8078,
      "Ġencouraging": 8079,
      "Ġbeautifully": 8080,
      "Ġlinguists": 8081,
      "lastly": 8082,
      "named": 8083,
      "ralph": 8084,
      "Ġtitled": 8085,
      "Ġschedules": 8086,
      "Ġcodify": 8087,
      "Ġpsychosocial": 8088,
      "Ġpsychologist": 8089,
      "Ġmessing": 8090,
      "Ġmessenger": 8091,
      "Ġdeadlines": 8092,
      "Ġdominicans": 8093,
      "Ġbias": 8094,
      "Ġbiased": 8095,
      "Ġbiotin": 8096,
      "Ġbiennial": 8097,
      "Ġlayer": 8098,
      "Ġbelly": 8099,
      "Ġbellucci": 8100,
      "Ġbellugi": 8101,
      "Ġheartless": 8102,
      "undergone": 8103,
      "Ġmodeling": 8104,
      "Ġrichness": 8105,
      "Ġrichardson": 8106,
      "iminal": 8107,
      "Ġsooner": 8108,
      "Ġcharging": 8109,
      "Ġconfident": 8110,
      "Ġ1784": 8111,
      "offended": 8112,
      "Ġpropagate": 8113,
      "Ġpracticed": 8114,
      "Ġroommates": 8115,
      "Ġcitizen": 8116,
      "certified": 8117,
      "cilia": 8118,
      "dennis": 8119,
      "excited": 8120,
      "exactly": 8121,
      "example": 8122,
      "experiment": 8123,
      "lost": 8124,
      "loved": 8125,
      "rowed": 8126,
      "ricity": 8127,
      "ricably": 8128,
      "wanting": 8129,
      "Ġwealth": 8130,
      "Ġsondra": 8131,
      "Ġcopies": 8132,
      "Ġdancer": 8133,
      "Ġdannell": 8134,
      "Ġfourth": 8135,
      "Ġbroken": 8136,
      "Ġhomie": 8137,
      "Ġanguishing": 8138,
      "Ġstatute": 8139,
      "Ġstatistics": 8140,
      "Ġstatistical": 8141,
      "Ġkennedy": 8142,
      "memory": 8143,
      "Ġassociate": 8144,
      "Ġassociates": 8145,
      "undable": 8146,
      "Ġneighbors": 8147,
      "Ġextrem": 8148,
      "Ġexpecting": 8149,
      "Ġexpectation": 8150,
      "Ġviewed": 8151,
      "Ġshaker": 8152,
      "Ġinterviewing": 8153,
      "Ġinterviewers": 8154,
      "continuing": 8155,
      "Ġ1962": 8156,
      "Ġ1964": 8157,
      "Ġ1967": 8158,
      "Ġ1970": 8159,
      "Ġ1971": 8160,
      "Ġ1972": 8161,
      "Ġ1975": 8162,
      "Ġ1977": 8163,
      "Ġ1978": 8164,
      "Ġ1979": 8165,
      "Ġannouncing": 8166,
      "Ġelsewhere": 8167,
      "Ġauthorship": 8168,
      "Ġgeneralizations": 8169,
      "2015": 8170,
      "Ġcharacters": 8171,
      "cifically": 8172,
      "discounting": 8173,
      "discoveringdeaf": 8174,
      "fffinish": 8175,
      "lineage": 8176,
      "lessly": 8177,
      "morin": 8178,
      "ropology": 8179,
      "rophone": 8180,
      "wrote": 8181,
      "Ġ843": 8182,
      "Ġ888": 8183,
      "Ġverse": 8184,
      "Ġtweak": 8185,
      "Ġsaturday": 8186,
      "Ġdemons": 8187,
      "Ġdemographic": 8188,
      "Ġdemonst": 8189,
      "Ġdementia": 8190,
      "Ġfixing": 8191,
      "Ġfixed": 8192,
      "Ġfixes": 8193,
      "Ġborder": 8194,
      "Ġbarn": 8195,
      "Ġbarry": 8196,
      "Ġbarbara": 8197,
      "Ġbarrel": 8198,
      "Ġlouder": 8199,
      "Ġlicensed": 8200,
      "Ġoccas": 8201,
      "Ġanimosity": 8202,
      "Ġanswers": 8203,
      "Ġanswering": 8204,
      "Ġinfo": 8205,
      "Ġinfant": 8206,
      "Ġinfused": 8207,
      "Ġinfants": 8208,
      "Ġinfrast": 8209,
      "Ġinferior": 8210,
      "Ġinfuriated": 8211,
      "Ġinfamous": 8212,
      "Ġnominating": 8213,
      "Ġremedy": 8214,
      "Ġreminded": 8215,
      "Ġremotely": 8216,
      "Ġefforts": 8217,
      "Ġefficiently": 8218,
      "Ġpossibilities": 8219,
      "Ġjuke": 8220,
      "Ġjump": 8221,
      "Ġjuice": 8222,
      "Ġjuarez": 8223,
      "Ġridge": 8224,
      "Ġconvention": 8225,
      "Ġworkshops": 8226,
      "americans": 8227,
      "Ġexpressions": 8228,
      "Ġacceptable": 8229,
      "Ġacoustically": 8230,
      "Ġcosts": 8231,
      "Ġcosting": 8232,
      "Ġcostume": 8233,
      "communicate": 8234,
      "Ġdirecting": 8235,
      "Ġimagery": 8236,
      "Ġmonthlys": 8237,
      "Ġmajority": 8238,
      "Ġillnesses": 8239,
      "Ġviews": 8240,
      "Ġviewer": 8241,
      "Ġviewers": 8242,
      "Ġcharacterization": 8243,
      "Ġfields": 8244,
      "bookstores": 8245,
      "centered": 8246,
      "depends": 8247,
      "dependent": 8248,
      "known": 8249,
      "knows": 8250,
      "lights": 8251,
      "surrounded": 8252,
      "tryin": 8253,
      "Ġwooden": 8254,
      "Ġwoodward": 8255,
      "Ġswallow": 8256,
      "Ġswipe": 8257,
      "Ġsuggestion": 8258,
      "Ġsubject": 8259,
      "Ġsubmit": 8260,
      "Ġsubmission": 8261,
      "Ġchew": 8262,
      "Ġchest": 8263,
      "Ġcheap": 8264,
      "Ġcheering": 8265,
      "Ġchears": 8266,
      "Ġchemicals": 8267,
      "Ġcheerful": 8268,
      "Ġclean": 8269,
      "Ġcleaning": 8270,
      "Ġcleveland": 8271,
      "Ġpatti": 8272,
      "Ġpattern": 8273,
      "Ġmidwest": 8274,
      "Ġmidlife": 8275,
      "Ġdetailed": 8276,
      "Ġdetection": 8277,
      "Ġdetriment": 8278,
      "Ġfantasy": 8279,
      "Ġfoods": 8280,
      "Ġbernar": 8281,
      "Ġgarage": 8282,
      "Ġgarofalo": 8283,
      "Ġgarcia": 8284,
      "Ġrefuse": 8285,
      "Ġreflection": 8286,
      "Ġrefundable": 8287,
      "Ġemerging": 8288,
      "Ġemerges": 8289,
      "Ġemeritus": 8290,
      "Ġmeantime": 8291,
      "Ġmemorial": 8292,
      "studying": 8293,
      "Ġjohnston": 8294,
      "Ġchallenging": 8295,
      "Ġdefining": 8296,
      "Ġdefined": 8297,
      "Ġdefinite": 8298,
      "Ġdefinition": 8299,
      "Ġperfectly": 8300,
      "Ġaccompan": 8301,
      "Ġfeatured": 8302,
      "Ġgrandfather": 8303,
      "Ġgrandparents": 8304,
      "Ġprotection": 8305,
      "Ġprotects": 8306,
      "Ġmailing": 8307,
      "Ġmailed": 8308,
      "Ġcreatively": 8309,
      "Ġ1992": 8310,
      "Ġthanksgiving": 8311,
      "Ġholds": 8312,
      "Ġholding": 8313,
      "Ġcelebrate": 8314,
      "Ġcelebrated": 8315,
      "Ġcelebrates": 8316,
      "Ġmainstreamed": 8317,
      "Ġshockwave": 8318,
      "Ġemotive": 8319,
      "Ġoccurs": 8320,
      "Ġpriority": 8321,
      "!!!": 8322,
      "cleanse": 8323,
      "eyelids": 8324,
      "friends": 8325,
      "lottery": 8326,
      "lotteries": 8327,
      "marriage": 8328,
      "maribel": 8329,
      "market": 8330,
      "porating": 8331,
      "poland": 8332,
      "polis": 8333,
      "policy": 8334,
      "political": 8335,
      "posedly": 8336,
      "ronics": 8337,
      "skies": 8338,
      "skip": 8339,
      "skits": 8340,
      "skilled": 8341,
      "skinny": 8342,
      "superintend": 8343,
      "supposedly": 8344,
      "Ġedit": 8345,
      "Ġedge": 8346,
      "Ġedition": 8347,
      "Ġedited": 8348,
      "Ġeditor": 8349,
      "Ġtrees": 8350,
      "Ġtouring": 8351,
      "Ġturf": 8352,
      "Ġturtle": 8353,
      "Ġsentences": 8354,
      "Ġsilc": 8355,
      "Ġsongs": 8356,
      "Ġimmediate": 8357,
      "Ġcaveats": 8358,
      "Ġpierce": 8359,
      "Ġpierced": 8360,
      "Ġdouble": 8361,
      "Ġdouglas": 8362,
      "Ġdetermined": 8363,
      "Ġdetermines": 8364,
      "Ġdrawn": 8365,
      "Ġfasttrack": 8366,
      "Ġbrewed": 8367,
      "Ġburned": 8368,
      "Ġholoca": 8369,
      "Ġholcomb": 8370,
      "Ġlands": 8371,
      "Ġlanded": 8372,
      "Ġluckily": 8373,
      "Ġrepeating": 8374,
      "Ġrepeatedly": 8375,
      "Ġstria": 8376,
      "Ġstriped": 8377,
      "Ġstripes": 8378,
      "melting": 8379,
      "melissa": 8380,
      "Ġvalid": 8381,
      "Ġvalue": 8382,
      "Ġvalued": 8383,
      "Ġvalidated": 8384,
      "Ġvalidate": 8385,
      "Ġvalentine": 8386,
      "Ġseparated": 8387,
      "Ġseparating": 8388,
      "Ġexpertise": 8389,
      "Ġaccreditation": 8390,
      "Ġaccumulated": 8391,
      "Ġspreading": 8392,
      "Ġcontrol": 8393,
      "Ġcontrolling": 8394,
      "Ġcontributed": 8395,
      "Ġcontributes": 8396,
      "Ġcontribution": 8397,
      "Ġofficials": 8398,
      "Ġmetaphors": 8399,
      "Ġmetaphorical": 8400,
      "Ġsurprises": 8401,
      "Ġattending": 8402,
      "Ġattendance": 8403,
      "Ġdependent": 8404,
      "Ġslows": 8405,
      "Ġslowly": 8406,
      "transition": 8407,
      "translated": 8408,
      "transportation": 8409,
      "transpired": 8410,
      "Ġcrumbled": 8411,
      "Ġcrumbling": 8412,
      "Ġbirthday": 8413,
      "750": 8414,
      "correct": 8415,
      "colourmen": 8416,
      "cribers": 8417,
      "efit": 8418,
      "effect": 8419,
      "equate": 8420,
      "equality": 8421,
      "famous": 8422,
      "followed": 8423,
      "followers": 8424,
      "making": 8425,
      "makes": 8426,
      "seniors": 8427,
      "showed": 8428,
      "taught": 8429,
      "toms": 8430,
      "teacher": 8431,
      "talked": 8432,
      "walked": 8433,
      "Ġurge": 8434,
      "Ġurging": 8435,
      "Ġursu": 8436,
      "Ġurgent": 8437,
      "Ġurdahl": 8438,
      "Ġtina": 8439,
      "Ġtiered": 8440,
      "Ġachieves": 8441,
      "Ġsusan": 8442,
      "Ġsalivated": 8443,
      "Ġschmit": 8444,
      "Ġschisms": 8445,
      "Ġcampers": 8446,
      "Ġcampuses": 8447,
      "Ġcampaign": 8448,
      "Ġpromise": 8449,
      "Ġmilan": 8450,
      "Ġmiles": 8451,
      "Ġmilestone": 8452,
      "Ġdhs": 8453,
      "itudes": 8454,
      "Ġfuror": 8455,
      "Ġfurious": 8456,
      "Ġfurrowed": 8457,
      "Ġforesee": 8458,
      "Ġforecast": 8459,
      "Ġbanished": 8460,
      "Ġhoped": 8461,
      "Ġhopes": 8462,
      "Ġhopkins": 8463,
      "Ġhangin": 8464,
      "Ġhanging": 8465,
      "Ġinformal": 8466,
      "Ġnonstop": 8467,
      "Ġnorman": 8468,
      "Ġnorthern": 8469,
      "Ġwebster": 8470,
      "Ġembed": 8471,
      "Ġembeds": 8472,
      "Ġembarr": 8473,
      "Ġkimmels": 8474,
      "Ġdocument": 8475,
      "Ġvalez": 8476,
      "Ġvolta": 8477,
      "Ġshopping": 8478,
      "Ġconnections": 8479,
      "questions": 8480,
      "Ġtravel": 8481,
      "Ġ1800": 8482,
      "Ġ1885": 8483,
      "Ġimplant": 8484,
      "Ġlectured": 8485,
      "Ġlectures": 8486,
      "Ġgranted": 8487,
      "ocratic": 8488,
      "Ġpreviously": 8489,
      "Ġactively": 8490,
      "Ġpraying": 8491,
      "Ġprayers": 8492,
      "Ġcomparisons": 8493,
      "Ġapproved": 8494,
      "Ġapproving": 8495,
      "Ġapproval": 8496,
      "Ġinvested": 8497,
      "Ġinvestment": 8498,
      "Ġinvestors": 8499,
      "Ġinvestigate": 8500,
      "movement": 8501,
      "Ġphotos": 8502,
      "Ġrecognition": 8503,
      "Ġrecognize": 8504,
      "Ġrecognitions": 8505,
      "Ġceremony": 8506,
      "Ġcolorado": 8507,
      "Ġpurchased": 8508,
      "express": 8509,
      "expression": 8510,
      "expressed": 8511,
      "Ġannouncement": 8512,
      "discussion": 8513,
      "Ġdrawing": 8514,
      "Ġdrawstring": 8515,
      "Ġbreak": 8516,
      "Ġexperiments": 8517,
      "Ġexperimenting": 8518,
      "Ġexperimental": 8519,
      "employee": 8520,
      "Ġproudly": 8521,
      "Ġenvironment": 8522,
      "145": 8523,
      "7273": 8524,
      "bedroom": 8525,
      "boye": 8526,
      "boys": 8527,
      "boycot": 8528,
      "coin": 8529,
      "coed": 8530,
      "coating": 8531,
      "code": 8532,
      "elections": 8533,
      "juke": 8534,
      "juxtaposition": 8535,
      "local": 8536,
      "located": 8537,
      "object": 8538,
      "obtained": 8539,
      "peace": 8540,
      "vocal": 8541,
      "vocabulary": 8542,
      "Ġutilize": 8543,
      "Ġtama": 8544,
      "Ġtami": 8545,
      "Ġapartment": 8546,
      "Ġapartments": 8547,
      "reflect": 8548,
      "refreshing": 8549,
      "registration": 8550,
      "Ġsweep": 8551,
      "Ġsample": 8552,
      "Ġsamples": 8553,
      "Ġsampling": 8554,
      "Ġsampler": 8555,
      "Ġsimply": 8556,
      "oralism": 8557,
      "Ġcrosso": 8558,
      "Ġpencil": 8559,
      "Ġpennsy": 8560,
      "Ġpleased": 8561,
      "Ġpleasurable": 8562,
      "Ġmcclinto": 8563,
      "Ġmicrophone": 8564,
      "Ġmassages": 8565,
      "Ġdedicated": 8566,
      "Ġdiego": 8567,
      "Ġduel": 8568,
      "Ġtools": 8569,
      "Ġfifty": 8570,
      "Ġfifteen": 8571,
      "Ġflyer": 8572,
      "Ġfingerspell": 8573,
      "Ġbotz": 8574,
      "Ġhospitalizations": 8575,
      "Ġlifting": 8576,
      "Ġlifestyle": 8577,
      "thinking": 8578,
      "Ġretired": 8579,
      "Ġretarded": 8580,
      "Ġresolving": 8581,
      "Ġresolutions": 8582,
      "Ġeastman": 8583,
      "Ġheterosexuals": 8584,
      "Ġheterosexuality": 8585,
      "socialize": 8586,
      "Ġjudge": 8587,
      "Ġjudging": 8588,
      "Ġknowledgeable": 8589,
      "Ġexisted": 8590,
      "Ġexistence": 8591,
      "Ġlibrarian": 8592,
      "Ġensue": 8593,
      "Ġensuring": 8594,
      "Ġensued": 8595,
      "Ġensconced": 8596,
      "Ġchatting": 8597,
      "Ġchatted": 8598,
      "Ġchapter": 8599,
      "Ġchaplin": 8600,
      "Ġconversations": 8601,
      "Ġconversational": 8602,
      "Ġconcern": 8603,
      "Ġconcerted": 8604,
      "Ġ256": 8605,
      "Ġexpenses": 8606,
      "Ġclarify": 8607,
      "Ġclarifies": 8608,
      "classes": 8609,
      "classroom": 8610,
      "classifiers": 8611,
      "Ġprotocols": 8612,
      "Ġtransformational": 8613,
      "Ġstructural": 8614,
      "Ġstrangely": 8615,
      "Ġbrightly": 8616,
      "Ġclassrooms": 8617,
      "Ġartistic": 8618,
      "Ġroberts": 8619,
      "Ġapplies": 8620,
      "Ġregularly": 8621,
      "Ġsymptoms": 8622,
      "Ġindianapolis": 8623,
      "Ġsettings": 8624,
      "Ġintimacy": 8625,
      "Ġintimidate": 8626,
      "Ġparadox": 8627,
      "Ġparadigms": 8628,
      "Ġparamount": 8629,
      "Ġparameters": 8630,
      "Ġinstitution": 8631,
      "Ġattitudes": 8632,
      "Ġfolktales": 8633,
      "Ġfundraise": 8634,
      "Ġmediums": 8635,
      "Ġconsumer": 8636,
      "Ġconsumers": 8637,
      "accessibility": 8638,
      "profit": 8639,
      "professors": 8640,
      "Ġwindows": 8641,
      "Ġcounseling": 8642,
      "Ġcounselors": 8643,
      "Ġdescription": 8644,
      "Ġdescribing": 8645,
      "Ġstruggling": 8646,
      "Ġinspiring": 8647,
      "Ġinspiration": 8648,
      "Ġeffective": 8649,
      "Ġimagined": 8650,
      "Ġimagination": 8651,
      "Ġreflects": 8652,
      "Ġreflecting": 8653,
      "Ġaccomplish": 8654,
      "Ġburnsville": 8655,
      "Ġcriticize": 8656,
      "1977": 8657,
      "1984": 8658,
      "866": 8659,
      "barry": 8660,
      "barriers": 8661,
      "barbara": 8662,
      "birds": 8663,
      "birdbrain": 8664,
      "clagget": 8665,
      "cultural": 8666,
      "county": 8667,
      "countries": 8668,
      "countrywide": 8669,
      "diy": 8670,
      "drive": 8671,
      "drilled": 8672,
      "dogs": 8673,
      "friday": 8674,
      "hambur": 8675,
      "hamilton": 8676,
      "hammerstein": 8677,
      "mirror": 8678,
      "mirrors": 8679,
      "mindless": 8680,
      "rhyme": 8681,
      "specifically": 8682,
      "summer": 8683,
      "summon": 8684,
      "teaching": 8685,
      "wheelchair": 8686,
      "Ġescort": 8687,
      "Ġescape": 8688,
      "Ġesdaa": 8689,
      "Ġtears": 8690,
      "invited": 8691,
      "involved": 8692,
      "investment": 8693,
      "interact": 8694,
      "interpretations": 8695,
      "intervening": 8696,
      "influence": 8697,
      "influences": 8698,
      "influenced": 8699,
      "Ġwarring": 8700,
      "Ġwardrobe": 8701,
      "recently": 8702,
      "Ġseminary": 8703,
      "Ġscare": 8704,
      "Ġseriousness": 8705,
      "onauts": 8706,
      "Ġthrill": 8707,
      "organizing": 8708,
      "Ġcuts": 8709,
      "Ġcatching": 8710,
      "Ġpioneer": 8711,
      "Ġpotatoes": 8712,
      "Ġpotentially": 8713,
      "Ġpunished": 8714,
      "Ġpackards": 8715,
      "Ġmaster": 8716,
      "Ġdistinction": 8717,
      "Ġdumbfound": 8718,
      "Ġflew": 8719,
      "Ġfemales": 8720,
      "Ġfemale": 8721,
      "Ġfeminism": 8722,
      "Ġfoung": 8723,
      "Ġbankers": 8724,
      "Ġlerner": 8725,
      "Ġangel": 8726,
      "Ġangela": 8727,
      "Ġangeles": 8728,
      "Ġinclusive": 8729,
      "Ġnetwork": 8730,
      "Ġnetworking": 8731,
      "Ġnetworks": 8732,
      "Ġnationally": 8733,
      "Ġnormally": 8734,
      "Ġgoofy": 8735,
      "Ġhallway": 8736,
      "Ġhallucinations": 8737,
      "Ġhammond": 8738,
      "Ġhammerstein": 8739,
      "Ġhammersmith": 8740,
      "Ġreaction": 8741,
      "Ġeyebrow": 8742,
      "igrated": 8743,
      "Ġheavy": 8744,
      "verbatim": 8745,
      "Ġmelts": 8746,
      "Ġmethods": 8747,
      "Ġkeynote": 8748,
      "Ġjewish": 8749,
      "Ġnecklace": 8750,
      "Ġdollar": 8751,
      "Ġdollars": 8752,
      "Ġrainbow": 8753,
      "Ġengagement": 8754,
      "Ġsolve": 8755,
      "Ġsolving": 8756,
      "Ġsolves": 8757,
      "Ġconditioning": 8758,
      "Ġtradition": 8759,
      "Ġtrims": 8760,
      "Ġuniquely": 8761,
      "Ġadvisory": 8762,
      "Ġcloser": 8763,
      "Ġclosing": 8764,
      "Ġcloset": 8765,
      "Ġclicking": 8766,
      "Ġdissect": 8767,
      "Ġdisappeared": 8768,
      "Ġsprout": 8769,
      "Ġsprang": 8770,
      "Ġsprouting": 8771,
      "Ġspotlights": 8772,
      "Ġinteraction": 8773,
      "Ġinteractive": 8774,
      "Ġtempest": 8775,
      "Ġtemperature": 8776,
      "Ġtemporary": 8777,
      "Ġfunctional": 8778,
      "Ġ2004": 8779,
      "Ġ2006": 8780,
      "Ġ2007": 8781,
      "Ġtranssexuals": 8782,
      "Ġmachines": 8783,
      "Ġbobcat": 8784,
      "Ġboxer": 8785,
      "Ġdiscovering": 8786,
      "Ġdiscrimination": 8787,
      "Ġdiscriminated": 8788,
      "Ġdiscriminations": 8789,
      "Ġafricans": 8790,
      "Ġrocks": 8791,
      "Ġappreciate": 8792,
      "Ġapplauded": 8793,
      "Ġresearcher": 8794,
      "Ġresearches": 8795,
      "Ġresearchers": 8796,
      "developing": 8797,
      "Ġphilip": 8798,
      "Ġphysiology": 8799,
      "lesbian": 8800,
      "Ġlaughs": 8801,
      "Ġlaughing": 8802,
      "Ġsmartphone": 8803,
      "Ġelective": 8804,
      "Ġelectricity": 8805,
      "Ġelectronics": 8806,
      "Ġintrigued": 8807,
      "Ġheadsets": 8808,
      "Ġflux": 8809,
      "Ġopposition": 8810,
      "Ġinstructional": 8811,
      "minnesota": 8812,
      "systems": 8813,
      "Ġestimation": 8814,
      "Ġestimate": 8815,
      "Ġestimates": 8816,
      "Ġcolumns": 8817,
      "Ġmaintained": 8818,
      "Ġrestrooms": 8819,
      "Ġvegetarian": 8820,
      "Ġrelationships": 8821,
      "Ġconstructing": 8822,
      "Ġhonorable": 8823,
      "Ġremains": 8824,
      "Ġsugarcoating": 8825,
      "Ġsuggesting": 8826,
      "Ġcashman": 8827,
      "Ġbrainwash": 8828,
      "colonialist": 8829,
      "colonialism": 8830,
      "colonialists": 8831,
      "Ġdynamics": 8832,
      "Ġfavorite": 8833,
      "Ġfavorites": 8834,
      "homosexuality": 8835,
      "regarded": 8836,
      "Ġcroatian": 8837,
      "Ġprotests": 8838,
      "Ġetcetera": 8839,
      "Ġpuzzling": 8840,
      "Ġbehavioral": 8841,
      "Ġuploaded": 8842,
      "Ġshakespearean": 8843,
      ".'\"": 8844,
      "222": 8845,
      "737": 8846,
      "audiences": 8847,
      "audiologists": 8848,
      "burgh": 8849,
      "cotics": 8850,
      "castronovo": 8851,
      "clearly": 8852,
      "clearwater": 8853,
      "dyhb": 8854,
      "eyesore": 8855,
      "finding": 8856,
      "fingerspell": 8857,
      "fingerspelling": 8858,
      "gths": 8859,
      "hopefully": 8860,
      "limited": 8861,
      "loses": 8862,
      "monthly": 8863,
      "miss": 8864,
      "missing": 8865,
      "michelle": 8866,
      "nonpartisan": 8867,
      "nifier": 8868,
      "normally": 8869,
      "suicide": 8870,
      "saying": 8871,
      "sweden": 8872,
      "swedish": 8873,
      "substant": 8874,
      "subjects": 8875,
      "touring": 8876,
      "tournament": 8877,
      "varied": 8878,
      "varner": 8879,
      "valuable": 8880,
      "years": 8881,
      "Ġessence": 8882,
      "Ġessential": 8883,
      "Ġâħĵ": 8884,
      "ĠâħĶ": 8885,
      "Ġtreatment": 8886,
      "infused": 8887,
      "infants": 8888,
      "Ġwheelchair": 8889,
      "realizing": 8890,
      "Ġthomas": 8891,
      "Ġthompson": 8892,
      "Ġthumbs": 8893,
      "Ġcabin": 8894,
      "Ġcabins": 8895,
      "Ġcastronovo": 8896,
      "Ġcathart": 8897,
      "Ġcatholic": 8898,
      "Ġpersist": 8899,
      "Ġpersuad": 8900,
      "Ġpressure": 8901,
      "Ġpathological": 8902,
      "Ġpathologically": 8903,
      "Ġmnvotes": 8904,
      "Ġmerge": 8905,
      "Ġmerchandise": 8906,
      "Ġmiriam": 8907,
      "Ġmirror": 8908,
      "Ġmarti": 8909,
      "Ġmartin": 8910,
      "Ġduty": 8911,
      "Ġduties": 8912,
      "Ġdiminish": 8913,
      "Ġdiminished": 8914,
      "Ġdiagonally": 8915,
      "Ġdiagnostic": 8916,
      "Ġfruition": 8917,
      "Ġfruits": 8918,
      "Ġbenefit": 8919,
      "Ġbedroom": 8920,
      "Ġbullet": 8921,
      "Ġbulldog": 8922,
      "Ġhilly": 8923,
      "Ġhung": 8924,
      "Ġhuntley": 8925,
      "Ġhooker": 8926,
      "Ġhooked": 8927,
      "Ġlady": 8928,
      "Ġladies": 8929,
      "Ġlogically": 8930,
      "Ġovereat": 8931,
      "Ġovereating": 8932,
      "Ġindeed": 8933,
      "Ġindelibly": 8934,
      "leads": 8935,
      "leaders": 8936,
      "Ġnaive": 8937,
      "Ġnavigate": 8938,
      "Ġnarration": 8939,
      "Ġnarcotics": 8940,
      "Ġnuts": 8941,
      "Ġnutrients": 8942,
      "Ġglobe": 8943,
      "Ġglobal": 8944,
      "Ġreversing": 8945,
      "Ġreversed": 8946,
      "allowed": 8947,
      "Ġheroes": 8948,
      "Ġstevie": 8949,
      "Ġstereot": 8950,
      "Ġstanzas": 8951,
      "Ġisrael": 8952,
      "Ġisraeli": 8953,
      "seemed": 8954,
      "searching": 8955,
      "charge": 8956,
      "charles": 8957,
      "meanings": 8958,
      "statement": 8959,
      "Ġjaws": 8960,
      "Ġjaelin": 8961,
      "renditions": 8962,
      "Ġexecutive": 8963,
      "Ġexecutives": 8964,
      "Ġattempt": 8965,
      "Ġattempted": 8966,
      "Ġliebling": 8967,
      "Ġliberal": 8968,
      "Ġliberation": 8969,
      "Ġveda": 8970,
      "Ġveditz": 8971,
      "Ġshunned": 8972,
      "Ġshunted": 8973,
      "Ġrhetorical": 8974,
      "Ġrheumatism": 8975,
      "Ġroughly": 8976,
      "response": 8977,
      "Ġcommanded": 8978,
      "Ġsegal": 8979,
      "Ġsegment": 8980,
      "Ġselfish": 8981,
      "oddly": 8982,
      "Ġdevil": 8983,
      "Ġdevice": 8984,
      "Ġdeliberate": 8985,
      "Ġdeliberately": 8986,
      "Ġadministration": 8987,
      "Ġadministrators": 8988,
      "Ġadmissions": 8989,
      "Ġadverbial": 8990,
      "Ġsavings": 8991,
      "Ġdisagree": 8992,
      "Ġdisagrees": 8993,
      "Ġdisclose": 8994,
      "Ġdisclosing": 8995,
      "Ġdisplayed": 8996,
      "Ġsplit": 8997,
      "Ġsplitting": 8998,
      "occurred": 8999,
      "Ġcontractors": 9000,
      "Ġprevent": 9001,
      "Ġprevails": 9002,
      "Ġpretended": 9003,
      "Ġprejudice": 9004,
      "Ġprejudices": 9005,
      "containing": 9006,
      "Ġbrush": 9007,
      "Ġbrushed": 9008,
      "Ġbrazen": 9009,
      "Ġbrazil": 9010,
      "Ġaffordability": 9011,
      "Ġstoryteller": 9012,
      "Ġstorytellers": 9013,
      "Ġcovering": 9014,
      "Ġcoverage": 9015,
      "Ġinvolvement": 9016,
      "appreciation": 9017,
      "appreciate": 9018,
[...]
